/**
  ******************************************************************************
  * @file    network_data_params.c
  * @author  AST Embedded Analytics Research Platform
  * @date    2025-05-09T01:59:31+0000
  * @brief   AI Tool Automatic Code Generator for Embedded NN computing
  ******************************************************************************
  * Copyright (c) 2025 STMicroelectronics.
  * All rights reserved.
  *
  * This software is licensed under terms that can be found in the LICENSE file
  * in the root directory of this software component.
  * If no LICENSE file comes with this software, it is provided AS-IS.
  ******************************************************************************
  */

#include "network_data_params.h"


/**  Activations Section  ****************************************************/
ai_handle g_network_activations_table[2 + 2] = {
  AI_HANDLE_PTR(AI_MAGIC_MARKER),
  AI_HANDLE_PTR(NULL),
  AI_HANDLE_PTR(NULL),
  AI_HANDLE_PTR(AI_MAGIC_MARKER),
};




/**  Weights Section  ********************************************************/
AI_ALIGNED(32)
const ai_u64 s_network_weights_array_u64[51437] = {
  0xe8ecdeafd6e2d112U, 0xdcf9681e2d6fdf5U, 0xd3d8c8eceef70c43U, 0x180afff505f8e8efU,
  0x24d581d10906eefcU, 0xfb00ff0301f8fb17U, 0x38bd0302f6060708U, 0xc22c2ead35538506U,
  0x192dbc3551810939U, 0x1ed51419d1ed0806U, 0xaU, 0x0U,
  0x0U, 0xcdddeeec00000000U, 0xddc7e8e6e4e1c1c9U, 0xecede4b6b9c48196U,
  0x4ccfe1e3b8c5b6deU, 0xdbe242d5c95ee5c9U, 0xdb4dbbc07fcecc5fU, 0x22dddd43e4ed2bd7U,
  0xf1e8U, 0x0U, 0x0U, 0x0U,
  0x0U, 0x0U, 0x0U, 0x0U,
  0x0U, 0x0U, 0x0U, 0x0U,
  0x0U, 0x0U, 0x0U, 0x0U,
  0x0U, 0x24e0e119af81d200U, 0xc3e5f5c4cfcb0f01U, 0xcf6fb0ff1f8ef06U,
  0x10ffU, 0x0U, 0x0U, 0x0U,
  0x0U, 0x0U, 0x0U, 0x44a11d32ae220000U,
  0x81274696262dd106U, 0x1422cd1335bd1055U, 0xd82cf716e10827c3U, 0xea02f41eeff531fdU,
  0xebaf1a068a021081U, 0xcd33098ae30091a7U, 0x7cac0001d8b7U, 0xc0000000000250e2U,
  0xe89e000323d0U, 0xc0000000c0000000U, 0x40000000c0000000U, 0xffff458ac0000000U,
  0xc0000040c2a21740U, 0xfffeeed500010a00U, 0xc6ee1306f3810000U, 0x21fcdb81d9c34031U,
  0xdfc8fb81148ffe00U, 0x56fa04867f81d95fU, 0xf2f0ff07090205ffU, 0xc03421660ac0572U,
  0xfed67f01141500f7U, 0x5881d999dccd5431U, 0xe78153577f0bf07fU, 0x7fb2011020dfde41U,
  0xfabae70217158112U, 0x261032cad6b0ef60U, 0xfceb50fa0359ff01U, 0x31b37feae5007f6bU,
  0xbcd33f0c6025fef9U, 0x39b50e29e5f6ff72U, 0x81eaf4fa1c21fdffU, 0xf142c02e1f9bd7fU,
  0x858900000057U, 0x4d0000446bU, 0xfffffd6f000036e0U, 0xffffffbb0000050aU,
  0xfffff03e00000000U, 0x2cdffffffd0U, 0xfffffc0bffffffa8U, 0x21c0600014f03U,
  0x102000102ff02U, 0x117f000000000000U, 0xfb8105fdfeef11U, 0xd607000032000000U,
  0xf8fbfefdfd81e4U, 0x1f00000007000000U, 0xfeed37007fd327U, 0xe3ff0000e8000000U,
  0x800f506f9a581U, 0xe7060000f8000000U, 0xafd3e0381d833U, 0xf3010000ab000000U,
  0x37f060004f40fU, 0xf9f500002d000000U, 0x4027f00000ff1U, 0xa000000f7000000U,
  0x3ff1ffffb48dU, 0xffffaf1200004151U, 0x190c00008708U, 0xffffa4c6ffffd16cU,
  0x0U, 0x81430acd1b293bc4U, 0xe203f389ee81f406U, 0xffff0d86e681f804U,
  0xa40e25dc0a0e7ffeU, 0xfe2943b5fa43812cU, 0x7f2d03d06d2025f9U, 0xf781bb5ccc1c0dU,
  0x7fdaf31a0eed1ae0U, 0x31f84c71387f0706U, 0x7f055ce460210a03U, 0xb00fc0302f57fU,
  0x812544a62e443719U, 0xe50ff548227f05f1U, 0x7f1e0fe646180501U, 0x2c02bc8f818ec114U,
  0x0U, 0x40e4e813514f000U, 0x7fda0c10f8f40c1dU, 0xecdf38927f61fe0fU,
  0x9f623fcd902fb81U, 0x5d00ae3fc381dbfaU, 0x381f90306fd661eU, 0x81f79f20e8eed0f4U,
  0x5ed7cc7fcfa2d4f2U, 0x0U, 0xda8166d248273b02U, 0x701244c157ff1f3U,
  0xfcd658857f55624bU, 0xfef604fc00020f81U, 0x81e2b624e1e8f30aU, 0xd70dc79ff981f7f8U,
  0x0U, 0xfb3e7f8b2067feecU, 0x9a7f99e4c8331ed5U, 0x81e1c21ee0edf2ffU,
  0xf801fd76f77f0906U, 0x61081e883f000U, 0xeef9f87f23790b02U, 0x60f99434a181f0fdU,
  0x811e299051603f13U, 0xfe7ff9030dff83c1U, 0xfadd06f911012981U, 0xfc057b0381fdfb09U,
  0x7e05c5f37fe414f3U, 0x7fc0c56ce7a8fb13U, 0x11ea1859187fd302U, 0x7f280b1f0bebdbf4U,
  0xffffed3cfed82064U, 0x4500000d91U, 0xfffffcf1fffff249U, 0xfffffffa000003f1U,
  0xb65ffffeff7U, 0x1ab100000203U, 0xfffff65800003a77U, 0xffffead7000004c5U,
  0xfffff0d308c99220U, 0x26a1fffff6cbU, 0x32fa000004d8U, 0x2ef00000f10U,
  0x734e2300002c1eU, 0x18fbfffff4acU, 0x25ba00003f9fU, 0x101200000730U,
  0xfffff6913fffffc0U, 0x1bc00000060U, 0xe92ffffff38U, 0x1a9ffffffe8eU,
  0x4b700003247U, 0xb33ffffff89U, 0x27ebffffea46U, 0xfffff3fa00000539U,
  0x6c6a6e79afac3fdU, 0xb00d7ff8d11914e3U, 0x169d97f6c2e00f26U, 0xca27812281fa190cU,
  0xbf917294d3537f0aU, 0xd0244f7ff4b59dabU, 0xb4976a1b81640444U, 0x92d8695b4a290210U,
  0x3d3be13584ca3f2bU, 0xf35518514f812b63U, 0xb5817f848126427bU, 0xf532a95ee154ff60U,
  0x9db2725de5ea2d21U, 0xf40d0bb77111f826U, 0x167f7fbe00d51f2dU, 0x7277213f990ec86U,
  0x7fe906d2cc371ca1U, 0xf7f30d60007f7d00U, 0xec3f8fd49a0ada1eU, 0x813b60dffe0f53e0U,
  0xd2bcb7c3e3022337U, 0x7f16eec478121e07U, 0xc99b76a101d82fd6U, 0xe20875b7b2d12896U,
  0x9c7f7f508d817f4fU, 0x8f7f787f0605817fU, 0x8114e04d81504752U, 0x14042681b5ec637fU,
  0xd6906c81fc81fd72U, 0x7f4281fc4f5c487fU, 0x813f6e2fe61b7037U, 0xe248069b110a146fU,
  0xcd12697ff303217fU, 0xf80712c901ee3381U, 0x5fec01c3081ecd81U, 0x3bf005b9394542e6U,
  0xff0bd4ece30208f7U, 0xedeffef627d98fe6U, 0x1215052c401df428U, 0xb6d011160a2004f5U,
  0xfdef16df28acdee0U, 0x7d71534bbe1ede7U, 0xf035b57fe41c5415U, 0xe4900020c481785aU,
  0x2609f1bb657f8166U, 0xfa810b3ffe6e7f1eU, 0xfeeb10c251868a19U, 0x7781e0ef7ebdcd23U,
  0xf811834dfdff667fU, 0xfae6ebe881dbf33cU, 0x14db0ac5162ac160U, 0x5b4cb1cff4164edU,
  0x16fdf9f5342691b1U, 0x3d100ede7f9b81f6U, 0xffffc05dfffffd47U, 0x6c3ffffffbfcU,
  0xe81ffffdc50U, 0x3c99400012dccU, 0x781ffffd926U, 0x7b900000e1bU,
  0xb8d000005baU, 0x58aa00001645U, 0xffffffdcffffcda1U, 0xf4bcffffe1d4U,
  0xee4ffffe7f5U, 0x18ed0000078bU, 0xfffff79200000c22U, 0x19000010ef5U,
  0x77d0000011bU, 0xfffffd9f00002283U, 0x93390000a864U, 0x3554000143daU,
  0xffff55200001db6bU, 0xfffff8e800007227U, 0x31400000715U, 0xffffe2d6000013bbU,
  0x4242ffffdb7eU, 0xffffd11300000281U, 0x1ee0d22bfa050400U, 0x4ff06bff10d044bU,
  0xfe6bf237e1160f00U, 0xfffd2a1202c1001eU, 0xa060bfa120200fdU, 0xdb0294fa63318194U,
  0x28fff4fd378cf900U, 0x41f1b40402f298f8U, 0xf7000aedf7e0cb00U, 0x870e020581090010U,
  0x2b35e838190e0f1eU, 0xfdaaf805ff05040fU, 0xd4d74af50201dd00U, 0xf709f4fd654804deU,
  0xef200ca59f0f1c00U, 0x5bd81ed04170004U, 0xf405f8f241cbfcb8U, 0xe61008c31197b70cU,
  0x124bf81100ffd500U, 0x300fdf935a5f5fdU, 0x1127deb67f1ddc00U, 0xf96bba15fa1f0005U,
  0xf060401983ed1c6U, 0xffebf22b10c2b4f7U, 0xb0f5150397d20400U, 0xc9e367f20211cf05U,
  0xe106150e13152600U, 0xd21b073be2e500f6U, 0x3a57f8d08cff1cdU, 0xf00adb03050bfcU,
  0x307ffd40103fa00U, 0xaf60cc814f205ccU, 0xf5a402c3f7eb0c00U, 0x403e70204370011U,
  0xf905fd02fe1425d7U, 0x21fcb405a6ce7fa0U, 0x8ba13f4100b0900U, 0x686fc1001fd13ecU,
  0x97fcfff6080afc00U, 0x2100037f0ff500fbU, 0xf30ae81cf80127f5U, 0x40dfbedf409eeffU,
  0xf9fe270605fb1200U, 0x8fbf8a0f700f9eeU, 0xfcf48bfe06fe0200U, 0xf7fb08fdfbfe007fU,
  0x4b05fd0a081eda0bU, 0xffff3203fb0c014aU, 0xffffb427000052c0U, 0xffffa4290000ac48U,
  0x67240000c9f8U, 0xffffc03a000023dfU, 0xdff7ffbc8bff690U, 0xe2810eeede41ad01U,
  0x0U, 0xc80b81f8f9042784U, 0xfa81f9d93ccdffefU, 0xfefe7ffaf01e0b90U,
  0xf32905bd7f9e1fd4U, 0xa017ffdec1d1484U, 0x1b7f0d44b31d290bU, 0xf7f91b133f7fe8e1U,
  0x8ff4417b58104d3U, 0x7ffd16db0404fc1cU, 0xf6047f261348078bU, 0x7ffc0114060af8f8U,
  0xbb1abfb40bf4c881U, 0x327ff60440d70e08U, 0x3f3021204027f01U, 0x7f0cbcdffa1df0abU,
  0xb81f5afa9261912U, 0xf881f397fa09cc11U, 0xef8111ca8d2c10f8U, 0xdfec0c7f04069f05U,
  0xe2c77f9e1be5dd56U, 0xd91898d304fc4981U, 0xc7f0212fb071e06U, 0x810bf5cae31019e3U,
  0xf00b8cdb5f7f045eU, 0x4cfa76d604020f7fU, 0x7f00e3000b01f3ebU, 0x134aedcad30b7f0aU,
  0xe197d7c581060cfeU, 0xfb04fdef537f01feU, 0x87f031803030a06U, 0x810042c4fef01247U,
  0x810229edfdf80527U, 0x637fe810a72dfcf2U, 0xec038b08c8816a6aU, 0x77f0b3b78d02ce8U,
  0x7720bf307e281U, 0x810ff6ddf1f81ee2U, 0x3ff47f2603fa537cU, 0x0U,
  0x81640213b6271810U, 0xf230dfa18104ddU, 0x7f0e1ad804020626U, 0x7fadb6b7cd1fdb1aU,
  0x22fef031faf781f0U, 0x7f1eb2abe31206adU, 0x1156000012d2U, 0x23f0988cec0U,
  0x67b0000362dU, 0x1c45fffffd3dU, 0x78e00000bb5U, 0x58000075e5U,
  0x10dd0000375aU, 0x200cfffffe90U, 0x290fffffc9cU, 0x34f2fffffb3eU,
  0xcac00000ef9U, 0xfffff9a100000475U, 0x16000015f4U, 0xfffffc9a00002888U,
  0x22f10000001cU, 0x2370000289bU, 0x13000001802U, 0x159d000000a6U,
  0x2aa0000230fU, 0x2b00001a64U, 0xfe2d4a06000000d4U, 0x3400001523U,
  0x7e40000005bU, 0x1360000099bU, 0x2fbf406fe7fcbc5U, 0xe6fc0642fac6effeU,
  0xa0cf67fec010507U, 0xd9ddf6ff04fcf1ffU, 0xfafa0f210503fdfcU, 0xedc381e8ce0503faU,
  0xdd43ac16af5c8190U, 0x57d0ff7ffd7f2df0U, 0xfaf5ede1be8607feU, 0xb981fab80acdfc12U,
  0xf959aa05d2f4f115U, 0x613730791d1d9ceU, 0x21f80800006bedf3U, 0xca00f913fda4fe03U,
  0xc0df89bee11f20bU, 0x2f5fdf5023cf8feU, 0x5d20e250301faf8U, 0xff0b10cf138efcU,
  0x17f71ff6fb0d154cU, 0x37ddabb47995b6e2U, 0xeb6eeb877ff0d912U, 0x37551dc0080a7f0cU,
  0xb7e3072f0801da9aU, 0xd781578121ecf5feU, 0x817f7f817f305a7fU, 0x817f7f9181e27f7fU,
  0x81957fec1a817f81U, 0x7fb4947f8181c97fU, 0x7f817f7fee7fd27fU, 0xdf7daf6c7fe39f7fU,
  0x5eeaa800f33e130dU, 0x44e3f5f00a41d6a3U, 0xf9fedb7755f29511U, 0xc037f9dc1171e3ffU,
  0xef760821e9db7f02U, 0x7feaf3fa932c81f6U, 0x6ee0502fb030505U, 0x5034bf027ece108U,
  0x383f9021b1903fcU, 0xf8f6ecef0af304fbU, 0xe70202ecd601ebf7U, 0xe1f60fea0c05c7faU,
  0xc7d30c1cc6e20bdcU, 0xf6ca8316e6fd46f2U, 0xf17fccffc43f3828U, 0x233e7fab00c5090eU,
  0x1fec0a117f10ed11U, 0xe7d5eb1afe7f85afU, 0x2feedefcfa0f0b09U, 0x5fe09effa00ec03U,
  0x2fffe020a1ecaffU, 0xe4f015f90546d9faU, 0xfb09fe010cf71cf9U, 0x1310f20ac8c39408U,
  0x116800000050U, 0x3e4ffffd4b4U, 0x91600004dceU, 0x7bffffffeb1U,
  0xfffff82b000001a3U, 0x39000008c3bU, 0x7e3000002c0U, 0xffffff3c00006fe6U,
  0xfffffee300002a86U, 0xffffaf940000ce99U, 0x29d40000d8f9U, 0x23beffffff12U,
  0x3e56ffffca50U, 0x498600000423U, 0xfffff5e300006c41U, 0xa943000077a1U,
  0x8960fffff3a5U, 0x44cbfffffaa4U, 0xfffff8a4ffff9c1fU, 0xfffff5f4000008e6U,
  0xffffff1f000004d8U, 0x28b00003866U, 0x662000003baU, 0x442900002d64U,
  0xfbff8100d400e8d4U, 0xf70ef72e0c2d070dU, 0x5205ce000c00d9e1U, 0xfce31be624d1bdfaU,
  0xd056fccd10c61503U, 0xd2c7f8cf040b001bU, 0x1f14ef0eb1001b07U, 0xd0dac800131519b7U,
  0xf2f1812432f61aa7U, 0x409dad5f227fd0bU, 0x21c9e60b443a12bbU, 0x809cb1dfadf00c2U,
  0xddc19ff0a00fef8U, 0xf50d040f2d5f0400U, 0x1ff07efeff112f6U, 0x7faa2b110be7c506U,
  0xa030e4e2cf1350bU, 0xc90208d2922c00f3U, 0xf52f20afd0033d4U, 0x4d1fd05b96f03f2U,
  0x12fee30d1333ec01U, 0x3963c4dadff570efU, 0x60ce37e9b2b9c02U, 0x7f0af158bdc2001aU,
  0x5cd9f2d3f400e2d5U, 0xa938afed3be843b6U, 0xdeb5276215214148U, 0x1303e622a640f6e3U,
  0x2fe4cae65e3817beU, 0x212ad20f18100feU, 0xb1047fffe900ec34U, 0xf405fdd3e2f2c301U,
  0x5001d21cfd0ebbfbU, 0xf8f2f5da3244dbfbU, 0xc4c2fd470dc70202U, 0xe2d9fbe113db0029U,
  0xcba1a822900b1bdU, 0xfdc216d0032317ffU, 0xf425bed82e49f8faU, 0xff05c8d21d130c81U,
  0xfb1eb100f0f808d2U, 0xef316f0ed1a0027U, 0x2bfb080b2a0008c1U, 0x3b0b3fb93dd43e1aU,
  0xec3f62a11d0840eaU, 0xfdf4c7489b42fff7U, 0x6413f202e67f42f4U, 0x45c20130e72002cU,
  0x5b490000243cU, 0xfffff0c4ffffbc6aU, 0x4e5ffffc3e6U, 0xffffd5ca0000158cU,
  0xe613b9fc747fed48U, 0xf6090c07fbfd81fdU, 0x9fb4efaba8101bdU, 0xfe013b016d7ff8c7U,
  0xea0681054f2df17fU, 0xa0ef276f7fb917f0U, 0xd00d67ad7fb75dc3U, 0x37c7813f87eddf50U,
  0x3514faa07fc1dcebU, 0x3fef1fdaa81f415U, 0xfc7f0f2000f32a08U, 0x5a81966ff1ecd9ebU,
  0x17057f03d3d5f78aU, 0x5df47f1d1cfe667aU, 0x8f872fdfaff0081U, 0x420bfa810e07ae03U,
  0x6137ce7f00f747e1U, 0x63efd47fbd0bb9d1U, 0x1eb21d047fa5d49fU, 0x8c1947810825144fU,
  0xceea0f59813b3c1fU, 0xf902e6037f4cf71cU, 0x17f06cfce5dcf481U, 0x28d6f90481461d03U,
  0x6f5810516bc0a73U, 0xe31281fabc48a1e9U, 0x26d9f11d8122d222U, 0x781eee7fb0707f4U,
  0xec2121d13add7ffcU, 0x15d9dd127feecad5U, 0x18f11dff81e71be0U, 0x10e075ecd7d40981U,
  0xb70eb92551581U, 0x16f876f5eaf30781U, 0x62081068d211371U, 0x4d27eb818540e40eU,
  0xe8209c0a187a0c7fU, 0x917f439ec1086143U, 0x18b0ee317faec8daU, 0xa4c72e81fa0edb33U,
  0xe714b1076c81f55dU, 0x6010605e17ffe0eU, 0xed8108a8f30fa31fU, 0x550ac97ffef49ccdU,
  0x50243f0811e0ac2U, 0x957f2ddb1dca201eU, 0xfcffee2503fd8109U, 0x40e8f0509fa6d81U,
  0xa01ffffffcfU, 0x8cffffff88U, 0x3bd00001574U, 0xd4500002ea8U,
  0xffffffcb000000a7U, 0x1423fffffcbfU, 0xfffffe2f00000768U, 0x15b00000290U,
  0x7a300000181U, 0x844000003040U, 0x9bb00000095U, 0x3595000010cdU,
  0xffffff4c0000015fU, 0x583000007b9U, 0xe5efffffa33U, 0xcd200000d9eU,
  0x6b40000011eU, 0xfffffde1fffffec8U, 0xfffff44600000049U, 0xffffffa30000028dU,
  0x5000001c5U, 0x1a3900000470U, 0x2ae5fffffd6aU, 0xfffffed900001167U,
  0xdbd53cc2c9b5304dU, 0xd314431647d4382cU, 0x9f3ed91e269929b0U, 0x4a8c1332b65d33dU,
  0x3cc13acb3a465eccU, 0x40c21dd45bb54bd4U, 0x814b427aafa65366U, 0xbc41597d5bb75552U,
  0x8110b446b0f34dabU, 0x810b81524d209351U, 0x5ba664b5517050bfU, 0x639fcaabd7a473acU,
  0xe7271373d5c22326U, 0xd02d377f23de3733U, 0xbbb0ce33504d33cdU, 0xc857aa2f2886e222U,
  0x32d336df273af3e4U, 0x35cebed0c0cd37cdU, 0x5b354f5ca4a0535aU, 0xb73c5f8c15b45950U,
  0x15ba48319143a6U, 0x7f8122604d0fa84eU, 0x549f57a14f5641baU, 0x59a853ad7fa34db5U,
  0xe6817f7481817f7fU, 0x817f7f91fe817f7fU, 0x227f817f81117f81U, 0xb002137f7f12817fU,
  0x7f817f817f7fd381U, 0x7f817f81c5817f81U, 0x9df93fbfc6aa393bU, 0xba474742e3bf4945U,
  0x716b8475e7f5295U, 0x91730044421dce3aU, 0x40d248c3434888beU, 0x42bbf7bab2c845beU,
  0x2ef21a63d4b62721U, 0xe42c2ee8abcb3a2eU, 0x50b1d23c20b825b8U, 0x7bbd462c2681cd21U,
  0x2dc727ca261ee8d0U, 0x28dadbce3fcb0bddU, 0x412041c7bc984034U, 0xd73d468e81ad4a3bU,
  0x720fc746b61f48bcU, 0x4af95c423e10c336U, 0x3bba39aa3f3681b4U, 0x39cc33c3dba328baU,
  0xf3003181e8c71d15U, 0xe21e29d0b0d3211aU, 0x4433df19244b29c5U, 0xe1432d1e244ae820U,
  0x23eb1ed82424d3ecU, 0x1ae734e8d9c620deU, 0xffffcf2a0000787eU, 0xf92f00006d31U,
  0x1e82ffff676fU, 0xb85fffffbefU, 0x15b00000255U, 0xb220001deb2U,
  0x2650000047dU, 0x8cc30000030eU, 0x13190000a9ddU, 0xffffdc35fffff6deU,
  0x169e1000008adU, 0xfffffa92ffffe3c1U, 0x809600000257U, 0xfffffce1ffffff00U,
  0x2b80000006eU, 0xb95fffff7d9U, 0x85d00004a52U, 0x5a1000012ceU,
  0x20c70000b45fU, 0x388f0000e331U, 0x4d80000b722U, 0x249000084c2U,
  0xffffbcec0000c19dU, 0x72900029e7bU, 0x27bbf904fc7f17U, 0xb1ffebe4f7ed0730U,
  0xe8f0f9cce2f2261eU, 0xf7fce71d0621def4U, 0xfd34f22cfbecfaU, 0xd5fff701000c0914U,
  0xd3df0e2826e1e213U, 0x23f1d5d3c1f419f8U, 0xfc022dd92c540c00U, 0x2c5cd20802f8f781U,
  0x1cd8eaebe2fc012fU, 0xd3e2051f4c043326U, 0xf7faf50e0c0c010cU, 0xfc03f907effb81efU,
  0x10cfcfc01fb0501U, 0xd05fafdf308fd45U, 0xd11f501011012c1U, 0xeaf1ffcf0204d4dbU,
  0xf903c6f909f42de1U, 0x9ff25f2e5f50581U, 0xef1165217fa2deaU, 0xfa0cdee5d3ede6e9U,
  0xea2807f52e35fef9U, 0xeed0ef0411182135U, 0x1f000e1de623f0d9U, 0xf420d0f8e715051aU,
  0xd51101d5243a00f6U, 0x2933cf0419120c42U, 0xf51e0dfd077f1933U, 0xcbc9013f1115d9f2U,
  0xd05f4e8f72ffef1U, 0x281eef909f9090cU, 0x1505f51f01050004U, 0xf3090efefd0f020dU,
  0x4f80402fd03dc18U, 0xf8f3150200fb0ef2U, 0x13015afcf7f77f10U, 0x2b010d0613fe14daU,
  0x11080f1d2b0158e9U, 0x5f603dd18e72217U, 0xe3000d0a92d9f809U, 0x1dcd151a20e3eaf7U,
  0x2fc0e06812efd12U, 0x9fbfcf51a09b3fbU, 0x9f09910040206ffU, 0xf2f90ffe02f403dfU,
  0x6000be10feef61eU, 0x6ec000f0109234fU, 0xf0492c4ccfed77fU, 0xfbf7006bd8044830U,
  0xb26fc43e0df90ee6U, 0x6c09f2af02f21b24U, 0x111208bdaecebde7U, 0xd031dd00207e701U,
  0x1207e1fec13f0588U, 0xb52406eaac2dU, 0xd46414c1a540917U, 0x394e4aedf01a4f1aU,
  0x5b4337fede703abU, 0xdaf72e9b0af5ea29U, 0xf1ffbdf48c110f7U, 0xfb4012210116c636U,
  0xec334111e401d608U, 0x39e73adbee04d5e2U, 0xeeb02ac7d05efa46U, 0x1e29027fdb063222U,
  0xfdf605f8fd04fff6U, 0xeffff2f0dbebfe20U, 0xedfff2e8fa09faf7U, 0xf705fbfa810405fcU,
  0xc6ed0010f100f8f9U, 0xfce3f000fc4bf2eeU, 0xebf30ee20efc36cdU, 0xdef101e7e77fda25U,
  0xf7f21211c8ec9226U, 0xeae8f89519ee23d8U, 0xefe9bd1bf6f5ce02U, 0x168ed602a308e11eU,
  0x5d51edc514ef12d7U, 0x1315221afd02da3aU, 0x1d25081718dd2809U, 0x15fccc662a46d0d4U,
  0xff7fbc23cf0ec628U, 0xe2084628130e1bf4U, 0xd5effdc3064001b8U, 0x2af624dbcea3c9b6U,
  0x90d9e4de23d85496U, 0xe3cdfde92aa3eaecU, 0x7f12591d960fd116U, 0x2f10f15e35a58b0bU,
  0xe5efec0120f8d9e1U, 0xf0ea79dfcb16d33eU, 0xdaf200f13926558fU, 0x1832e1ec3e00c8eaU,
  0xb8d4bcf841fbf4efU, 0x7f1dcdf232f50414U, 0x6c1ffffdf98U, 0xfffff57c00002c2eU,
  0x24efffffaf9cU, 0x5b52ffffad59U, 0xe5c100003ce1U, 0x66afffff5698U,
  0xffff5f69000003c5U, 0x79e000008b6U, 0xcdf593f0dbe0610cU, 0x2ce21116f77febf0U,
  0xff60cdef4e01ef5U, 0xd0e4b4e206d8e87fU, 0xfd51026081eee6ebU, 0xd802e50f3a49efeeU,
  0xa5c444a84e1e0ae3U, 0x8ef7ed47fd5c08fU, 0x1a351b160cdbeaU, 0x59f736d413487f66U,
  0x81ddf4e53ad80107U, 0xff08d0e9e42715deU, 0x10d9f07a7f93fdf2U, 0xd443e731e961c61bU,
  0x1fd97e11f1eecff9U, 0x3b5b313e30d86081U, 0xfe057ffeef3a1216U, 0x35f90508f127c0f1U,
  0xd21862f37f0c23d2U, 0x228b14c8a50e06d8U, 0x26081cd37f3e1e18U, 0x1dc25904b7bffffaU,
  0xd75cadec11ffbd7fU, 0x505bb4fde9bec754U, 0x7ffec2aff0041d03U, 0x15f5180510f624f0U,
  0x1502ed240c02019cU, 0x81d5fa112821050eU, 0x26f8741302811c01U, 0x409010a0cf7e7dbU,
  0x271acb48810714fdU, 0xe7eb06fc4ededee9U, 0xdfb9d041fffc0db7U, 0xfef57f21fc3807a9U,
  0xe8da41030a002623U, 0xf10968fc421b377fU, 0x22c22445f63ac2feU, 0x8156c5e36e7012cdU,
  0x392ef4dc0a042745U, 0x2809217fcdff12f2U, 0xf381ddc40c3d65f1U, 0xfc64e00336d52a3dU,
  0x5142de2f81b9f7e6U, 0xdf6f8002a0436dfU, 0xedf007e5671a510bU, 0x46bdbad1d4ea7fcbU,
  0x422c8143e7ea1af7U, 0xebf6130812fd3e01U, 0xfb5af9d007f7fe7fU, 0xe911041307f700f2U,
  0x7f3382d327f6091cU, 0x12ef4a38fb032cd5U, 0x8117affa01bc0205U, 0xfff11114ff0e12f4U,
  0xd7062d81eb5e0e1fU, 0x13f1d4f8ffbcff22U, 0x11d926ecedbb2515U, 0xe653fa81fbee2ed1U,
  0x11c8eac5813a09ccU, 0xed12b35d6b227cd5U, 0xa7d3d6b403e331c8U, 0x990ecdf901b6f17fU,
  0x27c210ef4b5354e8U, 0xf11ce7fa007fe5fbU, 0xca7a182335052b49U, 0x7f6b15c63541b8dbU,
  0xd5d212811c205505U, 0xc941ff32269ad145U, 0xd197d1a6cb811ee6U, 0x33cc63b3e22f0ec2U,
  0x27d22ac9a5cfc506U, 0xf82b06ef6e811cefU, 0xa7fd51fd90e2438U, 0x332ce70b8490300U,
  0x221c7fe914692b11U, 0xe323104d43e5dee3U, 0x23fd34d7e3e7e748U, 0x1408df1281d120f4U,
  0x1f518f6e406f011U, 0xbd01071f81f920f2U, 0x15db05fe03ade428U, 0xf27f33def1f24bafU,
  0x1906819ece22120cU, 0xc2d27172d25c5c0U, 0x41efe4c2037fe10eU, 0xf0e0e12f40021f6U,
  0xa637287fbeb7faf8U, 0xfbd5e0e7211fe2d2U, 0x810c2832f6ebec01U, 0xfdfdf5f813f4f3fdU,
  0x207ff2d1b21248cfU, 0xfb15cee7fe3edbd5U, 0x9b5cd2c981eee7f8U, 0xf6d41cee51d9ade4U,
  0x81f42b2404fcfeffU, 0xa06f2010702e7ebU, 0x11812d489bf8dc00U, 0xa4dabfdd93d3fb2fU,
  0xe32b8e22f2fceaf9U, 0xe0b1babcd3ebdc7fU, 0x7fe1dee31c5d2502U, 0xf032822f7fd09edU,
  0xd7392d7f2726e8deU, 0xab1dc00312dbca17U, 0xbcf881b725df0cdcU, 0x6d60d3000094fdfU,
  0x793e544f80dc87fU, 0x1ca10927380419ebU, 0xe287cba1021cad86U, 0x50d32d81debbd132U,
  0xcfef40e97f0a0be4U, 0xf2d3d4ddcc5feaf7U, 0x808ece542fdf7feU, 0x47ee0bdc7f1bf413U,
  0x7ff9dbdcea0410ffU, 0x1b21111411f63303U, 0xe30bf6fd00811307U, 0xf5f8f6fd0bc6d739U,
  0xd981ea10ace8f3d9U, 0x8eced95f50b32f5U, 0x49f9d2482b12e6f2U, 0x7f0abdc513caf2a1U,
  0xd1c4ebfa7f5814b7U, 0x2bc1ffe5271cec2aU, 0xff26fe2c21007fd4U, 0x52511ccd47d60226U,
  0x10d2e7914b2cf73aU, 0x3598141ed0f1e58U, 0xd4dfb31c2ee1bae8U, 0xfb4f132e1edc7fcdU,
  0x17f9c6eff57ff505U, 0x20018f9f51b17fbU, 0xd42318ee100623fbU, 0xd828e71e3ed6f781U,
  0x2a1a2840fe81ec0fU, 0x22e5e0c7f9ecf12eU, 0x1b4cee0127f9b0bcU, 0x7fe8dea23e28fcffU,
  0xe7032af0f708ec0eU, 0xc1756241032397fU, 0xfedd184a7cabd134U, 0x7ffbb0c0c92f271bU,
  0x68e94eefe014c0fbU, 0x10e9d2bdfbfe8141U, 0x62bd4103e09e300U, 0x7aeafaaa7feac815U,
  0xeafadedd81e7d426U, 0x13d04bfbe172e1d3U, 0x1e5fe57fc7bab0f9U, 0xd9f4bdf0ce002cU,
  0x37c4e1a47fa62840U, 0x3d000f77b80d1d1dU, 0x3056cd7fa0032117U, 0xf3bfede3d60bd336U,
  0x7ff3e235eb172407U, 0xfb13270f2a04eb27U, 0xde8115dbf2fd0df3U, 0xc54607ed761126cfU,
  0x3adc24d87fdde3f5U, 0x13e4ebf8b92024ecU, 0xfb0230dcf5fdfa1cU, 0x13177f1948184b73U,
  0x170eb3d87f2803d6U, 0xe00b0cfeedd93605U, 0x5d82bb45807f32bU, 0x5d06fcb9816736eaU,
  0x7e421e830073804U, 0xfbfe40e67f141f32U, 0x1ff90833eac53f18U, 0xf63e1e1a237fb1e2U,
  0x140a810b0211f1ebU, 0xebf9170d03074003U, 0xf2b0e8510b022e12U, 0xfb03acef3bd1d081U,
  0xe97fc030591b070bU, 0xe3d6390af1201cc8U, 0xf2efbaff1d131504U, 0x404abffe9bcae81U,
  0x811b8bb7e9b3cce4U, 0xf5f318fdf3fa23d6U, 0x26f61d05fe81fa0bU, 0x709000805c4ff0bU,
  0x13dbb90bf81111fdU, 0x25f08d02c3b7b381U, 0x961981bb11bd1413U, 0x9020e1b0fec54e7U,
  0x1bcdec9920927f23U, 0x22133e66170903d4U, 0x67f56611e37f2412U, 0xf1fee4ed15139b29U,
  0xeeeaf8e7d6280af7U, 0xb8e7e32981f802d7U, 0x98e0000094fU, 0xfffff559000013fbU,
  0xe0300001672U, 0x1528ffffffcaU, 0xc7400000adaU, 0x2d76fffff5e1U,
  0xfffffc1200000c23U, 0x22b7000002dbU, 0xfffffd9f00000145U, 0xc27ffffee0aU,
  0x1871000055b7U, 0x4a000002b19U, 0x1118000022adU, 0x82b00002ea6U,
  0xfffff96900000540U, 0xffffffe6fffffbeaU, 0x3b5afffff1bfU, 0x80c0000147fU,
  0xfffffd180000121dU, 0x15e000011a9U, 0x24b6000005d3U, 0x3b3b00001518U,
  0x2799000008baU, 0x64f00003717U, 0x1aba00007d7fU, 0x18ef00000206U,
  0x4b3300000e5fU, 0x14ee00000117U, 0x160000010a1U, 0x22700000601U,
  0xfffffb0f00001901U, 0x45000004bdU, 0x75c00000c10U, 0x134e00001302U,
  0x144000002646U, 0xa6900002d38U, 0x3f4b00002236U, 0x5b7d000015c5U,
  0x1c5700001e28U, 0x18350000250cU, 0x11ee00001702U, 0xfffffab900001c0fU,
  0x66cfffffdb1U, 0x258ffffffe04U, 0x129a00000897U, 0x56200000aaaU,
  0xffffffea00000c8eU, 0x16b3000022a5U, 0x1b0139eff23d0b02U, 0x810700d4028915d8U,
  0x3110ff10480f30e2U, 0xfb190bdf0b032b13U, 0x81fe1bf5f5fa04e5U, 0xdfeec8021e3ee3ebU,
  0xdfa3a041e1107U, 0x3407ece0fbf62fe9U, 0x3ce6270dfef8f315U, 0xf20ff5f8f80ede00U,
  0xe4c8de1b17f6e47fU, 0x14fc2fd30ed0109fU, 0xe323e81167f817fU, 0x740a08c6fed17fdcU,
  0x15f4ee7fdd43dcf3U, 0xff0a0c8122e57fdbU, 0x15fa14e813ebe89fU, 0xc80de275e32a8e34U,
  0xb3127f2e812ff2e2U, 0x3d81818119f867ceU, 0x7ffd1ffc1e9ae278U, 0x4c5f5b4ec18ee81U,
  0x2927e621fbf11856U, 0xe3501ecfde9fd10cU, 0x507f1e2ef120606U, 0x100afce0048a21e2U,
  0xd3f5fd0cf80324eaU, 0xf607f00703230610U, 0x9aed192b0bf009d7U, 0xe1f03ecbf8ec3c00U,
  0x613e0361d251007U, 0x800fc0006eccedfU, 0x16f11e0ef111f4f1U, 0xee11e601130ce20bU,
  0xdcca09150e1a0a05U, 0xe7ff27e006b8ef7fU, 0xd117fbb03e009f7U, 0x5f110c17f2e6e41fU,
  0x7f76e9e87f2debe2U, 0x1af613871c1108d4U, 0xd7201dde17e8e809U, 0x16fa0b8e642ed239U,
  0x7f0313df94f90b49U, 0x6752621e1be4eaa9U, 0x7dc31e3c264daf9U, 0xecb9bf0ae4140f26U,
  0x2b088f0813f72818U, 0x7fcd0017cf81af24U, 0x817fc60b7fa6e8cfU, 0xae817f7f814d9c7fU,
  0xda8181b6d781817fU, 0x7f817fd87f81bf81U, 0xc27f81a87f7f8a81U, 0x7f8f817781817f7fU,
  0x8281e281d4818181U, 0x7f1a3afd7f7f7fa4U, 0xd9a17f817fd9817fU, 0x817f847f81817f0cU,
  0x7f7ffa7f7fa17fd4U, 0xd648817f7fdc9d0dU, 0xa13ad36f9e508f7U, 0xfc1104d5f1a704e7U,
  0xb919f0edbb3005daU, 0xfc0ff3fb1242eacaU, 0xd40f267f10effb18U, 0xc8ecf57e1911e5eaU,
  0xc61900177d270552U, 0x3f4b24c30ff27eccU, 0x7e836f5c7a9ef5aU, 0xecd0fc08f7170a4fU,
  0xd8fe7ffdf97f13c3U, 0xb06c0ae1d39b1bd1U, 0x14180036fde114f0U, 0x381c031d0781f3fbU,
  0x1a10e504240923f1U, 0xf01dfaff00f4d70fU, 0x82de10f61af11b0cU, 0x1c33328110d62decU,
  0x761df1fd17080d17U, 0xef209230edec171U, 0xb5341d05f50ed68eU, 0xe60a3af81416d80aU,
  0xe6c5c211f5f0070aU, 0x1381171008e5004bU, 0x22039d6011081dc9U, 0xda121221fddced11U,
  0xa9f8c9e3d310f4d6U, 0x1b2819061cdec9ccU, 0xd9a430d423c87f96U, 0x1c7f07aaecfbf7c5U,
  0x291c0fd673f506dfU, 0x3ca2d8532bc82f7fU, 0xad7f19fdfe7fc59cU, 0xd6b87fbee82d05ceU,
  0xf00bfe3607d20fd2U, 0x1a9f411dfb47fdbU, 0xb15ed17ffe60df9U, 0xd81bfacf05afe8deU,
  0xc9eaf706f80c2dfeU, 0xe711f0f0042ff322U, 0xa9d6062201fa2203U, 0xe023cc03001dd704U,
  0xec0bf20e13100d01U, 0x2202132306e12858U, 0xdd141404f4fbfafdU, 0xee101bfce313d501U,
  0xaee02a08020fe3e0U, 0xd22dcf0b434e8U, 0xfffffc17fffffff6U, 0xfffff510fffff7e9U,
  0xb0fffffc13U, 0xfffffac6ffffce9cU, 0xffffff8a00002218U, 0x22520000485cU,
  0xffffc9290000212eU, 0x20bfffffb4cU, 0x22ac00005c5eU, 0xffffec4b00001ba3U,
  0x4316fffff2fdU, 0xfffffc5b00000055U, 0xfffffea800003721U, 0xffffe0e90000100fU,
  0xffffe626000071d1U, 0xffffd24600004c27U, 0xffffe9af00012eb3U, 0xffffa461ffffe8b0U,
  0x7696fffff482U, 0x636800000044U, 0x822ffffdf74U, 0x324fffffde6U,
  0x2430fffffc93U, 0x1996ffffea77U, 0x59afffffac6U, 0xffffee22000045ecU,
  0xffffce5f00000954U, 0xfffffa3300006301U, 0xffffc7cffffff50eU, 0xffffd25a000001b5U,
  0x42d500000971U, 0xffffa1c500004eedU, 0x66beffffea31U, 0x7ebfffff805U,
  0xffff73f10000296cU, 0xfffff145fffffe0dU, 0xffffd65d0000414aU, 0x602300002d08U,
  0xa8cfffffd87U, 0x667b00004d8dU, 0xffffc17bffffeddfU, 0xffffd4b100000008U,
  0x42ffffce15U, 0x67700005847U, 0x2d40000428aU, 0xfffffc5d0000a02eU,
  0x4a74000013c1U, 0xfffffd0d00000358U, 0x361cf1130f823909U, 0x67c60ae8ef2ab036U,
  0xb4f748cc1ee0dc11U, 0xe424d8aa08cde2cdU, 0x28b3f00a0fcfb2beU, 0xf1ab45c7bf13452dU,
  0xb31c7fb0dfde2b08U, 0x9d91fe5e5c508c7U, 0xf29f8d60e6141cf5U, 0x3384d70737cef9b6U,
  0xd240ee3921dc0b4bU, 0xf0e8e3d34607cf07U, 0xc5364110fc13e1f8U, 0xe032cf32ceb1903U,
  0x376607ae6f45feeeU, 0x1cf4f00c0751be26U, 0xb529fb491bec97cfU, 0xfff81a1e2bfe0ceaU,
  0xfedeeb00450d1318U, 0xbccbc22c1cd94438U, 0x98db5142f617f0feU, 0xf711d9da454828d7U,
  0xb1fd6835f87f1a3bU, 0x743fdde7f1bb1d3eU, 0xd2d4e64e100d0b0aU, 0x170bbd05e4faf2d9U,
  0xf218df1a09f30104U, 0xde3001ea81bc32faU, 0xbd4c07f8221d2a16U, 0xc2d02411f4fc102eU,
  0xfb4d0100e4d6db12U, 0xe5cbd34d01ece84bU, 0x150c301f45131f20U, 0xeae8243bc7d7fd8fU,
  0xf4013700f330b34eU, 0x62f409e8de39f47bU, 0xe5233b10fadaefefU, 0xe413c0fee6eb42c7U,
  0xc387ef7e5060538U, 0x221ff00f00061807U, 0xe8fdf7f5fcdfe01dU, 0xf8e1edf1dce2132fU,
  0x281ae4edf8db001fU, 0x1cda75f3ecc40604U, 0x2a3017cffb0f01ddU, 0x812edfbacac1b9edU,
  0x340821f52724f6f8U, 0xff150d05f1f31c0cU, 0xfbc0ffc2bdd123edU, 0xf3fed8efd4ca0432U,
  0x2344f8fc00f016d6U, 0xf711e415fe1afbf9U, 0x4ce2d62ff1e4bf0cU, 0xfefe3f0430818e8U,
  0x1204124913ff02c4U, 0xfc3cd7c3003300b1U, 0xa4c3fcd523e2ef1cU, 0xe8249a8ccefb0c7fU,
  0x1400320c0426dfbaU, 0xc2e624d1272dffa5U, 0xc1d90c05f42f05c4U, 0x1c9d15ad2315127eU,
  0xc107fd253ef2e5edU, 0xccd512e94cef3117U, 0xe322dd11fdeceee5U, 0x49293e280af7e51aU,
  0x51e4084ced1023feU, 0xe3ea012ff9e93418U, 0x283df508252d3a7eU, 0xedeb1a1e1eebfaeeU,
  0xc4ecfa5d111f221eU, 0x14e945810245c323U, 0xde0ddceadef2faf5U, 0xbef8ba05aeeef733U,
  0xfde83544fada01ceU, 0x81b2ecddb201fc3U, 0xe6272cf123b30138U, 0x800002301eabdfaU,
  0x30bfffcaf60923U, 0x1406fbfab80a012aU, 0x10f212d13248f9f5U, 0x7f20e90450122628U,
  0x5cde230cff0206f2U, 0xfa1e1101e2cbd90aU, 0xfd3e07eaee041ee3U, 0xf2cf18700aee0636U,
  0x2ef3d000e61002f9U, 0xcad621fa140e1520U, 0xf19f0de40060211U, 0x811a0c14cecbfef2U,
  0xad9ee291090f305U, 0x2efd01ed25e4bff7U, 0xcf2f1100e024219U, 0xedf1fdeff5eaf005U,
  0xe9041b2a22f23bf1U, 0xdedb18ae1d01fee0U, 0x75c687a4f3beb20fU, 0x123f511eb14da24U,
  0xbd090afafab1a3e2U, 0xafdee209d44e9a08U, 0xd4f6c4f2c5ebcc0cU, 0xdcd6270099fa2fbU,
  0x3204f71c9bd1e5d6U, 0x5ce8001c3332d70eU, 0xccc1c62e12380416U, 0x10f4b2ea0dcbb5f9U,
  0xd68106bc3514ef11U, 0x3141f515cea89309U, 0xf1f60db6d1031acbU, 0x402f03d18504386U,
  0xf52f331ec14d601U, 0x544d12e8f0e7def8U, 0x44fa452944061220U, 0xca1f085133040ff4U,
  0x5e1819b80c341208U, 0xf70f1414e9c318b0U, 0xf7e3d1c22869fbffU, 0xddd9e8ee09dcba3cU,
  0xf6c54fe90e2fa0b9U, 0xcd7feb50253ef705U, 0x13ce7f8b9ea5c7fU, 0xe71723d0020a323bU,
  0xe3d9cf34a026dce6U, 0x3edadcf4e7eb4c12U, 0x32ef25d100fe4326U, 0xdd362832efce310cU,
  0x1b260011f213f60dU, 0xf2e5f41a4cf3ede7U, 0x45faeff72708e926U, 0x1bc6331ffff30f07U,
  0xf7d2ee3c0001d7d3U, 0xd64465fdd3d82df5U, 0xb2f9f1fe48da080dU, 0x58efe711e9d4bcecU,
  0x5e15b8fdf4e8b029U, 0xac0f6f3b33160115U, 0x1781cef00f082bb8U, 0xbc8301320e2eed1U,
  0x1cf52ab0ece1130fU, 0xf4e7d60925bc10bbU, 0x7dcf2c41c041519U, 0x3715ccc5fb4736f0U,
  0x153a38f35af60fd6U, 0xda05e5fc0de4ca24U, 0xdefdc502fffb44f0U, 0x13b7a12140da08bbU,
  0x16f4e6f3d06df4fbU, 0x242d557f27bee3f7U, 0x10f7c604fca5abdbU, 0xf5ee08ffb5ca26a6U,
  0xe84c271cd5f860e7U, 0x4774d6c2d1dff8eaU, 0x140bc66bace131f0U, 0xcd5ad0efa97ef739U,
  0x2003dc18e7d8c904U, 0xf6018416ee55ee0eU, 0x9e5089d21c253b15U, 0x2f90f2426ad4ce6U,
  0xe004ffdc04319f6dU, 0xdd34110638b91bccU, 0x170d1c3ee94c06e0U, 0x4375655fda5faddU,
  0x41c61819dfe7eb13U, 0xab0b2b2c9bf642eeU, 0xdf0d97fac225e60aU, 0xa855eeac517f5a15U,
  0xceb4ed0f38f2bab1U, 0xfd4eb4f3f824deeeU, 0xee8c9e3ed9846a7U, 0x81a726f1d5e6c6e0U,
  0xe5d0fff812b2eb68U, 0x18ccfbc55dd3b922U, 0xb4d8abd0f0d12d14U, 0xf7defbebf6dfc55eU,
  0xc6f2afe1c0e34d2cU, 0xfb24fce920a71c4bU, 0xd09d2b09f3d75dffU, 0xed20be04f91aff21U,
  0xff05f048fad238f0U, 0x18f514c6aa60b8ebU, 0x33508a763dd09f8U, 0x2113e7e8287f9102U,
  0xad23de30303d29a3U, 0x2f79ef2ac926c5f6U, 0xf51a3d4f0c2a046dU, 0xd3ba06ef1b1210d1U,
  0xeaa031242e2f0c4fU, 0x13eede9cbc16f5e0U, 0xbefd13e833caf900U, 0xeececea5903fbf8U,
  0xf5d6c62a000dc4e1U, 0xbee03f4dc5ef1f6U, 0x1e2d0000ba82U, 0xffffd8a900002072U,
  0x1031ffffebecU, 0x740fffff62fcU, 0xffff8f8500010d90U, 0x66e4ffffb6b8U,
  0xfffff20bffffc863U, 0xffff8ee20000906dU, 0x3f81f0a686294837U, 0xc1712b2ee7fa3ed4U,
  0xf354f5d979190636U, 0x73def2be7f1805cbU, 0xdf08000a15410ec7U, 0x3845ec8134eee124U,
  0xf949b60d810bd731U, 0xb479f62b69b632ddU, 0xdbf2812606fffafbU, 0x13d41e1ae664e1eaU,
  0x81cb76346c2abee9U, 0xeb27e8f6e1e7cce7U, 0xdefc217fd35105d4U, 0xb2e415ec1bbcec20U,
  0xcd05f0f1253115f0U, 0xc3d7e61527047fd5U, 0xee122fdbf7291b1eU, 0xec06481c1947187fU,
  0x601574bfa7f9a15U, 0xe213dcf113d4b238U, 0x9cee7f4b3403f007U, 0xeefc19dba623dbebU,
  0xffb2eb127ffdf2e1U, 0xe80f1b1000f0e712U, 0xc6b6b1e78fa7f106U, 0xd22dd0ab237fd028U,
  0x5fa81ee2e22d3ffU, 0xd12f1018f8ac5f31U, 0x88647f5226e56689U, 0xf01c3f650daff5d4U,
  0x4f4a46928d44df4U, 0x50897a07d8f17d81U, 0x46e616fbc9edf27cU, 0x410d7fe4e7d4bde6U,
  0x2c1cba4810edd0edU, 0xe58dd1cff0138169U, 0x987a811fe6dd3449U, 0x27acad2d9aa7bf43U,
  0x52811bee5201fca9U, 0xb1060ae0f8bbf2ccU, 0xc8a87fe5330cd0e7U, 0xf04bf217099945f3U,
  0xfe92e70101e1f2f6U, 0x8b7f0c002ef2e40bU, 0xf4810df219f8fbbdU, 0xd13224dd1a09221eU,
  0xf7281dd1fc18de1aU, 0x2af74722e23a167fU, 0x7fdf0606ea56f811U, 0xf928fc13f5d8ee07U,
  0xec4110f621e00506U, 0x7f3337ac71f7e929U, 0x813fa702fddff22aU, 0x2efcee2de61414fbU,
  0x38812cd8191ad4c9U, 0xf1371ca2663214b5U, 0x7e4fe1f213fb81f9U, 0x47361367121dd1f7U,
  0xd90ea515290a1125U, 0x81493bd0242cf2e6U, 0x9507d7090e0afebdU, 0x1a1f7f78051f2c8aU,
  0xd242dddb407f7909U, 0x6bf4e9ad71f0e321U, 0xd81dc3de02e62bffU, 0xf886c9a9f4cae07fU,
  0xfb11cf1dfefbded9U, 0xddacdcd7f3ead17fU, 0x40f48119064ec8f6U, 0xfd0c2112080432ffU,
  0x158145c3ba060100U, 0x8f4bfaf9b60ec726U, 0x810ac3e2ecd2d7daU, 0xe8b302f2f6ede625U,
  0x19600dea8106080aU, 0x1dec140709e5f9dcU, 0xfb0e1fea1b13ca1fU, 0xb4c8dc148105261cU,
  0x340ff2cd7f0c1508U, 0x11d0d41df0fa42c6U, 0xcf5b16e8812000deU, 0x1cee98162e2142e7U,
  0xc12f23c61a5611ecU, 0x1eeb67caff0a4d7fU, 0xfd81eeeefa13edd8U, 0xe32a1cf52a00e4feU,
  0xcc812618d2f3308fU, 0x40d305441f6c5f6U, 0xc6d1f908472941U, 0xd7f081ee0cbfb284U,
  0xe8fa1ac2c64dccf0U, 0xce1c313b81f3cafdU, 0xf61830e0e0e5e4d6U, 0xa01d223081fc1bf6U,
  0x21047f3047b94af9U, 0xf3eee0ccc67fb0c4U, 0xf0557d27f19da35U, 0x3fd7f4f5a2ba200fU,
  0x304b7ff313bab636U, 0xf0f7c02f25c0f22cU, 0x436725de8524ee25U, 0x7f91ade8c05b1ff7U,
  0xfc7f1bc242eefb44U, 0x413c424813e3098eU, 0xebd6e80423c85106U, 0xebd2267944d98108U,
  0xd7f1f71a19f62f12U, 0x18dd0c0aeb7fa8f1U, 0x7f41dfae908ea58U, 0xa2810e1eba0c0bedU,
  0xeb33e21833091f86U, 0x7f4edfda2ffde407U, 0xe213218adc5a0007U, 0xa0b2121e8109cdf3U,
  0x2df1254df57fe4faU, 0x4cc44d3ada5402baU, 0xfded01f37f0421e8U, 0xe8cb2f02e7e416e4U,
  0xf812f0322fb4081fU, 0xc67f6e4d1d9bdefbU, 0xf80915df2c36192bU, 0x2ddc2cb57f261b4bU,
  0xcbde1cd9da49f8f9U, 0x81e83155b32e1d6fU, 0x964b8105f4ca01f3U, 0x1485d3e5cef0e83aU,
  0x5c00bc9dc0112e5U, 0x1e37053707a9b481U, 0xbb7fd32deeac67fU, 0xd6a1120f420a02deU,
  0x12bb810749f93fdbU, 0x8f73602d334290bU, 0x7f0f001cd132f1fbU, 0x131d1a140ce01fecU,
  0xfb73e2f930ed3039U, 0x812e379d16261dc6U, 0x90167f1ff3daffdeU, 0x26191bd74ce0cceeU,
  0xfea26f40232a027U, 0x178b7f150e083051U, 0x627ff237c5042ed2U, 0x9b902d711c5d528U,
  0x8fab7031155f8e7U, 0xf0a382cccec3a381U, 0x191aa0a1081b8ecU, 0x9c5d19f8b9fcee2fU,
  0xdaba9dd7ffe09fbU, 0x930870c518f61cdbU, 0xed7f06dd335241f1U, 0xe064eec500da0517U,
  0xe4716eb811908feU, 0x14e2e5e9150202f7U, 0x13e03e681f1f20cU, 0x50306ec200eeaf1U,
  0xcb403209ecdb0df5U, 0xe12f6c0e4f27267fU, 0x9be45be67fddfcedU, 0xfa07fbe4f815e2faU,
  0x38daa0097fd81f24U, 0xfbf63f0704021c2cU, 0x349a4403582c0806U, 0x77fcc913228ae19U,
  0xf1c3d7e31b2f2133U, 0x17daa4ca7fd3c7d1U, 0xd202c12141ee521U, 0xff2b8124fb212d1cU,
  0xf209ce3827ef4bf3U, 0x7f2c12e4c93d05f0U, 0x34260617fcd9deedU, 0x9a19e83d8112eabbU,
  0xdf18a444e1f0472cU, 0x60ec577fc11503f6U, 0xf3b9fbbb0f32f14eU, 0xfbade94981a72ac2U,
  0xf7d4cc122018f21fU, 0x2ae9b3072eb5e081U, 0xbfe081e25ab14ee5U, 0x14cbf7c3fb16183eU,
  0x220f4010813ec224U, 0x1705c6fbb729e413U, 0xed19e7032cf9fff4U, 0x6c3003ba7febd2f4U,
  0xd9e981f13838caebU, 0xbe019e28330f0363U, 0xf327e05881f5f1e5U, 0x4cd6562503dc04dcU,
  0xca5a81fd81fa2a30U, 0x18e81b2c3f1ee1eaU, 0xa43c327fa4578ab7U, 0xbe24f0d930eeedf6U,
  0x7fb911000bec00f9U, 0x10ece4ebef089657U, 0x317c000052d6U, 0x2c5700002052U,
  0x164b00000dc0U, 0xfffffbe4fffff5e2U, 0x600000001ecU, 0x2efefffffd9fU,
  0x17d9ffffe2a0U, 0x1b4cfffff055U, 0xfc100000983U, 0x2ecf00001502U,
  0x3abdfffff08aU, 0x116300002789U, 0x1321000021c5U, 0x4034000006f2U,
  0xfffff89d00002482U, 0xa63fffffbe2U, 0x12a5000012f2U, 0x1665fffffe9cU,
  0x17410000004dU, 0x1c8c00001ed5U, 0x6f000001026U, 0x4e000023e6U,
  0xfffffcb60000009bU, 0xfffff31e00001277U, 0x29ff00001001U, 0x183effffe755U,
  0xfa9000000f2U, 0x156900001c6dU, 0x1265000010dbU, 0x2ba9fffff746U,
  0x371b00002329U, 0x1227000012beU, 0x1876fffff6e4U, 0x2eb100000038U,
  0x498000009b2U, 0x128f000002d9U, 0xb1100000b36U, 0xe9d00000c9bU,
  0xba700001635U, 0x166900000dfdU, 0x2e0000003f07U, 0x69c0000041bU,
  0xbb4ffffffc2U, 0x16ad000016ddU, 0xd2400002174U, 0xfffffc8800000f0fU,
  0x222dfffffd17U, 0xfffff27500000197U, 0x2a3723e07ff5cb1bU, 0xaaa2322facb1f81U,
  0xa5f903fe7f42340fU, 0x2f351e1a0f22532fU, 0x32e8ec0adfa80becU, 0x15278e6404258124U,
  0x750ec913f9eb8413U, 0xde2b4d53f49f40d4U, 0xf2f3a3e604c0e225U, 0xc7f44aee1f11eecfU,
  0xc8c641d7ebbd9214U, 0x19c9322215f2e52dU, 0x7f13f3ef317f7ffcU, 0xe0813129e1d32c2bU,
  0xca9a5a2264813405U, 0x397f2c4d027f2bccU, 0xde02dd2217818105U, 0xae07fe41c96bd7fU,
  0xc088945cdad181fbU, 0x7f5fdbebeabd7f7fU, 0x21d4b102ec977e09U, 0x818782ee0021f9a9U,
  0xae097fe9af850b6fU, 0x17af92533d4ce0e8U, 0x1649fbe4e0eeecefU, 0xf2e12e0e1dca1945U,
  0x1b30fbe4dbe8e8ffU, 0x3e110516e627e8e3U, 0xd122ee2207cee1e8U, 0x14248c8afd095c1cU,
  0xdb2dca0a02eb0ce1U, 0x28f2a1abfdcf1ccbU, 0x6cf28be20bcf4f2cU, 0x10dedf22f709eee7U,
  0xee4cdee5fac53915U, 0x25d4e615102fb6e3U, 0x73117fe038961f7bU, 0x7fbc13430a812c0dU,
  0x8673f6324f787f32U, 0x81302c00689c117fU, 0xe883ee1da9a95ef0U, 0x631c0f11b81f5faU,
  0x7fdd8135fdc9a60cU, 0x9974fccde2c01d89U, 0x81e481d7f08a8109U, 0x987f81a07f17138fU,
  0x447a4b731e9f05bfU, 0x31a37f3a28ed817fU, 0x4c818f7f916ee581U, 0xd7f8810a88b07fcbU,
  0x4981817fac38d07fU, 0xb2637f81811981c1U, 0x7fffab81eda3147fU, 0x818176ac81a700a6U,
  0xa781b37f7f403c81U, 0xed817f7f7f673753U, 0xe7fd69981cfbc7fU, 0x6112ece9977f8c57U,
  0x3900c06a7f817f81U, 0x81cbe87f7f81e3b7U, 0x2d171bdcc2c5f50fU, 0xa2ac0e437fb41801U,
  0x7fa7f9f3ab8fb50eU, 0xa60a01f52132f6d9U, 0xfa7f04237f9ac9e0U, 0x3123b1102c7a0204U,
  0x9c358b17e8f26652U, 0x4ed70fdbd0ab16a7U, 0x2ed1cafcfa8148fcU, 0x5dac507ff6160286U,
  0xc981947fe8bcd1e5U, 0xfb7c5fc1d1193d8U, 0xfe440be9f503330bU, 0xda9210af4ad1233U,
  0xfc660815f9e101e8U, 0x3811250206c9d123U, 0xbadd1642d5bf0bf6U, 0x2e109581fa093ce6U,
  0x5b10ec06f7be01deU, 0xf7f2b7abf584e5ddU, 0xdcf5c21304d0f921U, 0x1df3e1e81fe009bbU,
  0x7fb5e6fbf2d44f16U, 0x3abd03f709258c10U, 0x2329d6ceca6c89f4U, 0xcc6137fe6ac1af7U,
  0x263a2e18c34ea9fbU, 0x3fc5fb11ec850b0cU, 0x1087f2a04991dd5U, 0x31e5171514500dcbU,
  0xccb6b720e5816145U, 0xb4d4f2efdcc1d567U, 0xf4d0f37ff291baf8U, 0x427959f3e1237f81U,
  0x8f4a1d7d0b8f644U, 0x1a81310c3402d6efU, 0xfb1ef2f425070af9U, 0xe7d40bec24e414abU,
  0x55eefcf311d1d90aU, 0x240c1302f6d03cf4U, 0x21231b131ac500e7U, 0x291695580454eff0U,
  0xe829e1f3fed632fbU, 0x12fe3a510081e7f1U, 0xb02eb1402d3e01eU, 0xf3f1282ce9fc06d5U,
  0x1160824e818c4f3U, 0x16cafae500f2d5ebU, 0xfffffbaafffffb46U, 0xfffffddcffffa24bU,
  0xfffffa42fffffb5bU, 0xffffd6cf00000911U, 0xffffca6400003df2U, 0xfffffc36000031a9U,
  0xd0300000537U, 0xfffffe900000b269U, 0xffffffe2ffffc89dU, 0xfffff11c00000017U,
  0x827fffff82eU, 0xffffe4d600000459U, 0xfffff716fffff75cU, 0x485ffffff5cU,
  0xffffe2880000009fU, 0x362dfffff339U, 0x11afffff6c3U, 0xfffff2fb00005606U,
  0xfffffe090000101fU, 0xfffffd1affffeb0fU, 0x469bfffffac3U, 0x10f9fffff923U,
  0x37cc0000ab88U, 0x3bf1fffff8cbU, 0xffffff4500000199U, 0xffffedf70000452cU,
  0xc2b2ffffcec3U, 0xfffffd110000348eU, 0xffffe53300003034U, 0x36230000a015U,
  0xffffd069ffffc96eU, 0xffffe91e000000e5U, 0x63d00000de6U, 0x34d100004cc6U,
  0x48b0fffffe75U, 0xfffff08200004f22U, 0xfffff88e00009af5U, 0x36ffffbfbdU,
  0x498fffff9dcU, 0xfffff9850000005eU, 0xffffb387fffffe4fU, 0xfffff60800007188U,
  0xfffffa87ffffe3f1U, 0xffffe8effffff938U, 0x37f8fffffe3dU, 0xffffd8d2fffffbcdU,
  0xfffffd1bffffce7aU, 0x13800005cdaU, 0x113f0b3d12c3d1dU, 0x42f0c1cea2af1ccU,
  0xe0312fce41d10cbU, 0x2a0110de20d2e2f0U, 0x1ef0d1fb170a0004U, 0x1db3f2d6332cf2d4U,
  0xbe0a32fe5db2e11fU, 0x41eb2e7feafd0fd2U, 0x2101ecd80305da29U, 0xf3f43fc9cf0efdefU,
  0x37271e25c4eb63d5U, 0x1009e0d519ca11ecU, 0xc51e39070f032ffbU, 0x2aa9f31d43134385U,
  0x3d2cc524312520b3U, 0x4f2732d72d00df43U, 0xec27ea0c222eeda4U, 0x3736f581de15e7adU,
  0x4757f46cd3e3222cU, 0x32efe264dccde29aU, 0x63990debf4b80e3eU, 0xece5fa3f22deb201U,
  0x2db3e45f6ea57cfU, 0xd43849bc07ea3735U, 0xf5ea4b280881f727U, 0x23d4f8d9f0ae988cU,
  0x13c2eaf9c0c61cf3U, 0x72f4e5dddbe8190dU, 0xf71122db1e8304d7U, 0x1c16c2a2f0c9ce0bU,
  0x134adf0ae012271bU, 0x22f30a252217dba0U, 0x1fc81c47f3fb1b10U, 0xff3b1fec07d90af6U,
  0x2311fd2620bc1e11U, 0x2fb7e9d5c91beb03U, 0xef9b35bb432f52e0U, 0x18ff3ef1bddcbb20U,
  0x2bc112402ef7ff5dU, 0x1f027b7aad502f9U, 0xd0ae2736401cab04U, 0xfb1cd4f8bcc2cea6U,
  0x26eaea5909dd04d6U, 0xc8e5c8795a71e5f5U, 0xb6e01867163bf79eU, 0x36ec344881660541U,
  0x19caf2e6004202b3U, 0x2a8dd827e2b7f368U, 0xb73165683feccd55U, 0x3407c31df8adac78U,
  0xf2f1f834003327baU, 0x81c826ac50b78935U, 0x1ef3d5d01d8f2b38U, 0xf1cf3041371959b9U,
  0x5d2eccc01c8f41dU, 0xe90886aeff492860U, 0xc211efb7e419f297U, 0x3208fc3b291dba2dU,
  0x91db41a74d42d4b1U, 0x269b0c01f5a416f7U, 0xff5cfcb0f52bf309U, 0x1ce814f14e933f2U,
  0x6400d49e11711dfU, 0x1bf32a07f7020dfaU, 0x2c0d28d30058371aU, 0x6410f818f812c325U,
  0xafb160a29f29c00U, 0x25da1e0ff7f55710U, 0x1bf0c4e80efb020dU, 0xf81bf93227dd0800U,
  0x49ffc326e4e2e201U, 0x6fcf8013833eac9U, 0x1cf2e5c43a163cedU, 0xefe70b29f6cdb61cU,
  0xbff8d0fc81fa13dbU, 0x11f2a10ca00171bU, 0xf3d12ffc74c7f3e7U, 0x73af443f60cd34cU,
  0x3ed601042fc1d3adU, 0xc2506ea6834330bU, 0xf453410bf41107bfU, 0x90814e208091be3U,
  0xe3f5f8e73822cd20U, 0x1be315c6004e92e3U, 0x31e7e2d92232f7deU, 0x362d0a09031ed638U,
  0xf00b11b81dec3327U, 0xec034853ddd5f9e6U, 0xcff20a83e8e4f50bU, 0xf8090525e70af206U,
  0xeae011150bcfef16U, 0xe2b206e3f4f82e1aU, 0xf0a0fef13dd6e106U, 0xf90b0807192100d9U,
  0xcd05fddb0329f00bU, 0x7f46f7034ceef207U, 0x4d105f19715000eU, 0xcae5f0f7e2fedfd8U,
  0xda38eed68142fa28U, 0xfac52505e939b946U, 0x552fbf050ff56744U, 0xc614e01af7c9cbdaU,
  0x192ec522ed15c2ccU, 0x530c492d233efafaU, 0x560af0c767cb4137U, 0x8d25b1c9b736e2d5U,
  0x45f38c0fd3020411U, 0xcb6fedf2827fa25U, 0xddd0b2f02c4eb02U, 0x531b65c161c7ce0eU,
  0xbf4c0fd7e801d900U, 0xce00d40604e2c24bU, 0x32d022e838e50b1bU, 0xc6080b2514f2002cU,
  0xe9da42cedc1902e9U, 0xf6e1c9ec810ff51eU, 0x618cd30ed283feaU, 0x72aee4342ed3f03U,
  0xf6ea07dc2bf7d1dbU, 0xb0d28f80ff30b41U, 0xeb36077fc5faccddU, 0x1004e602f705eefdU,
  0xb2200345f0f4cae1U, 0x10e3ecf7cb2df4fbU, 0xcc0391a2008febdU, 0xfeedfffee3d70338U,
  0xebf4e0de29ebf3e7U, 0xebda4fc80d29c010U, 0xedd7ef3bdefc2a0fU, 0xc43fdbe106f72befU,
  0x13cb15f02ec1e735U, 0x15d843efed0209f6U, 0x6bdff881160a5afaU, 0xf2fe18ee38030cf4U,
  0xbede2e9d9c5fd09U, 0xfd3908befcd0ba23U, 0x103b52f61c0bf4b8U, 0x27f08d0107bf0e3eU,
  0xbf150c2df6faeefeU, 0xd2e32e7d01a4efe7U, 0xfb1e1eea3332fff4U, 0xe82bf0333f2817efU,
  0x5bbc42cb7125cb5U, 0xf3ef2bfbfcc32f16U, 0x3f5e9eff038cbbaU, 0xf80a0414ed0f1a11U,
  0xccd9f0f306be2bU, 0x102ffa09da03ebc6U, 0xe711fdefed05bc81U, 0x1deb1e1ba8c91904U,
  0xf1ff1e21eff2b007U, 0xc5de12fc59cb0cf1U, 0x22f9f7055c30cc01U, 0xedf4df180e411339U,
  0x12001117dd44fbd7U, 0x24fd3c06da15dcU, 0xceebdcf4f92f1d05U, 0x650f35d3b81749f2U,
  0xf13e0bfbcd5691e8U, 0xf45002ee1c3ed4e6U, 0x5d2ebc13efe6fba3U, 0x4401181814a9c3d4U,
  0xfae43ed2f1d8e250U, 0xdcb5e272ca6f5c4U, 0x7d8a7d0d05b54f9U, 0xa04bc103d3f7dd66U,
  0x270413b9f421d5d2U, 0xf7677f23b1280fdfU, 0x2011fb9cea12550fU, 0xbbd81e230847d5f6U,
  0xfa2f3906f1b8fd0fU, 0xec2f38dbcda42dceU, 0x1922e8cbe119070cU, 0xfd27d6f03c01dfddU,
  0x544977403bd113c4U, 0x13a62325c3e43126U, 0x15142bdb2e47eb2dU, 0xffdadbccbd08bd9eU,
  0xd2aedfcfb1711e5U, 0x10e9e5d97f34e9d5U, 0x8502333bcae2244cU, 0xe54dc5cf062116f1U,
  0xd105d413e141f5b7U, 0xbc15812133efe73aU, 0xfd18a8f25830d209U, 0x1b4bbdeb163229caU,
  0x485f33bf0fe8d6f1U, 0xf201e95b4c141426U, 0xc9191de201e4baa5U, 0xd9f1dbd3f422dd37U,
  0xdbbd29e007db400aU, 0x214be662c70e2d0bU, 0x88cd00003cc5U, 0xa22000066aaU,
  0xffffe07fffffe7f6U, 0x431dffffa164U, 0xfffff54b00003268U, 0x1676000014acU,
  0x24de000008b3U, 0x84000003ab8U, 0x12510b8111933525U, 0x4dd2d2df0136fae0U,
  0xf4c8dcfb7f0df400U, 0xde9ea1bd7230c16U, 0x5c90af5e3002081U, 0xbfd6f30b490928f0U,
  0xfefcd1e41d0aa5e4U, 0x2214f32df6815d20U, 0xc5ee81d4caf31ae1U, 0x44b759ebdd2e00d1U,
  0x1fff6061139c3b9U, 0x7fa255e2d7efe0deU, 0xcfb19442dac821d3U, 0x54a87f3ef42732a6U,
  0xcd2135c26b181fcU, 0xf31113d7e70ef3fbU, 0x12b5ec44f481f1d7U, 0xd7e61c29190532daU,
  0xed062bffe3f4da37U, 0xa8187f541742577dU, 0xe2e1cd1a27447c14U, 0x33f618d47fd4042bU,
  0xc6e3a81a05f3da04U, 0x55811fb2db5212f7U, 0x9bedeff07210345U, 0xfed2b0ff05cde081U,
  0xde71edda81f6f53eU, 0xce01f920261ebd28U, 0x7f09d40eed1ce600U, 0x8f4000303f21f0fU,
  0xe52203293fff0bf7U, 0x13e716fb7fee00f0U, 0xfff6f60f1df8f340U, 0x22f7fbec7f12f802U,
  0xee78d1c97f312901U, 0xbdacdcadafe381dU, 0x1508edf4022709fbU, 0xebda3dbcbd5e981U,
  0xaf21d72e4d2f3e16U, 0x5cec6f00262a7f76U, 0xcb7f90154d10e9e8U, 0x56861f14bd4043caU,
  0xfcb724227ffccae4U, 0xf2aac5bcc9dac872U, 0xdc17d2f9b8efe2f3U, 0x81c7bfd4832ffb37U,
  0xe87f321628f9e22bU, 0x7cb003cf1f404f2U, 0x7c0f03f7fe1ffc9U, 0xbec1456df3543d4U,
  0xe8ff3aa8f22a0110U, 0x81f5d11bb318f8e3U, 0xf5db29fa81fed2d3U, 0xf040c6ce3b30ba46U,
  0xe02efb080de04926U, 0x6f7e11694481dd12U, 0xd64381e257a8951cU, 0xd5043661b315170aU,
  0xf3a1fcfee2de29ceU, 0x944877811000e0c2U, 0xcdd10300303cc47cU, 0x3ab506d77ffef706U,
  0x62cebfb312ddc0fU, 0x54a7ce7fea00320dU, 0x3a03811ce31bb1ffU, 0xeb24ffe40bf62c1eU,
  0x133cf5b20f199ed3U, 0x9ce3fd7f026e8bceU, 0xd812e6f90b12816dU, 0x3a49ed11cfe5b138U,
  0xbe5f531e51f4cedU, 0x7fdbc9b925e51238U, 0xfe54f1f433f0eb81U, 0x3b4efbe21619e203U,
  0xecb2f2f70714a6fcU, 0xea26b5157f411114U, 0xfddab93ee7ac003aU, 0x422a247fe5eac41eU,
  0xe4e6ed15292f12c8U, 0x7f1ffbb65ced1817U, 0xd452021d2542b67fU, 0x1d5ee88aca670aebU,
  0xd35281c59337d1d7U, 0xbe60e438b247c6U, 0xef03f2328609e309U, 0x2207fdc1ae4d8c0U,
  0x7ff403090e20f6fdU, 0xfce90b060cfde31fU, 0xf30bd7a6dd7f5311U, 0x2114ec273a06d706U,
  0x1efb7f3207111600U, 0x11f5021c0b16d4daU, 0xf88e03d8126add23U, 0xe010d281fb5069dcU,
  0xc6eaa23949362815U, 0x480299e309a0f281U, 0xe764f6140ee8d97fU, 0x2131d021e1f61713U,
  0xd6db28c5f411fcdcU, 0xb5dc1e1a81fb01daU, 0xfbf7fe0af325efe2U, 0xfeed281cb25530cU,
  0xe20d160ff4fbf9deU, 0xe1e5377f4a98d403U, 0xbf268123ee18d9dbU, 0xaf93c8ccffaafe7dU,
  0xc6d90a0581bbf405U, 0x1910344724b6c20aU, 0xeeb681b6e204e0e4U, 0x1fe02d1111e826f9U,
  0xdbd11c37ee5bd946U, 0x603818f0e147b0aU, 0xfb0b090cd21cf6e9U, 0xd131f11381eb0f0bU,
  0xe00b8115fd0811d2U, 0xcda8f1bbfe21c85eU, 0xe82f35f1f9150edcU, 0xb015f1ef35e397fU,
  0x119fafafc021081U, 0x1551fc07dafcf711U, 0xf187091fd603097fU, 0xbf991f1b06ff29f9U,
  0xff3ffb5f18fc810cU, 0x44fe16bdd4e927ffU, 0xecc61bc7f536cfd7U, 0xcfc50be681161ad9U,
  0x14f61fcbefeddbfaU, 0x17d8fdf4fe814806U, 0xa0714e498114def2U, 0x11c7bbfd2d07dd08U,
  0xc8f581e303d71af2U, 0x11831cd5db07e931U, 0xf2eb41f3dd28f92fU, 0xdde862030650697fU,
  0x2bf2082bc11b45b6U, 0x3b81f03518564ec7U, 0xe1e6e658181c7f06U, 0x4144f91122bf4022U,
  0xca4ec1a39812f54dU, 0x121985f5e47f79e3U, 0x9e5c5df260d9514U, 0x262a217f0f19ba06U,
  0xfd94edf6810afaf0U, 0x4ee60715f311e70cU, 0xfbe3ce4803e6219cU, 0xd1cbea7f071d57f0U,
  0xe1dff2e4080fc8e2U, 0xc109337f2f37f3c4U, 0x16ddf73adfa2810cU, 0x54e4fef6eef053f2U,
  0xfdb4e8f9e2260181U, 0x1cccfe30412521e1U, 0xb5f78113f4e912e3U, 0x429c46ffd8181addU,
  0x2fed25810c19a0c2U, 0xbbc6fadb29380ce5U, 0xf4d6fa193ec3917fU, 0x655554db87c334ecU,
  0xf63539fcf0ee021aU, 0x7a81deb9d5cd4513U, 0xedddc21902170037U, 0xbb158f0f09b4ca81U,
  0x150db67f0f260019U, 0x9eb0c06db68d614U, 0xb02ef2b811fdaefU, 0xe92317d5531ec9f1U,
  0x16f729ceefbee72eU, 0xf9e97f1a41170553U, 0x182ff7d408afbceaU, 0x812a145522e2eaf2U,
  0x81f93d2d1726c1eeU, 0x3e9ef140412ebebU, 0xef2e38c6b32ef7d0U, 0x13ce6ccb9e3f727fU,
  0x8108b7e81bcfeff1U, 0xf2f2f327f9021f01U, 0xa50d88d2874cbe38U, 0x7ff10704e66e53bcU,
  0x37fee284912e839U, 0xbbe944ea0bea15d1U, 0x925fb2494819ad8U, 0xf432ba2a472f34fdU,
  0x2bf2f12611062001U, 0x8179414c1f03a214U, 0xd4b8de352e2ec3f0U, 0x74276339d2683481U,
  0x1b90d9cd7f5afc17U, 0xf4156dc7bbd00fecU, 0x878bb44380b89d2U, 0x813816615cf467a8U,
  0x7f1bf90e9a20f914U, 0xbed18ef20ffd807U, 0x1c0000156aU, 0xfffff7cbfffff909U,
  0x115600000c3aU, 0xfffff27500000dd6U, 0xfffff5d5fffff037U, 0x100400001dcfU,
  0x189d00000160U, 0xfffffd3c000000b9U, 0xfa5fffff89eU, 0x8fe00000a4fU,
  0x152300001265U, 0x17d700002aacU, 0xffafffff10aU, 0x186700001607U,
  0xffffff090000bc92U, 0x29400000113U, 0x835fffff26cU, 0x9730000010fU,
  0x22e9000004c9U, 0x199fffff756U, 0xe0300000084U, 0xfffffdfc00000307U,
  0x7cafffffc35U, 0xad1ffffee87U, 0xfffffabc00000443U, 0xfffffd33000003ceU,
  0xfffff6f600000a21U, 0xffffffbbfffff893U, 0xea1000007a6U, 0x3c7000009b1U,
  0x582ffffffceU, 0x10f100000336U, 0x92200000c80U, 0x6720000005fU,
  0x92e00000243U, 0xfffffa24fffff927U, 0x24edffffff92U, 0xfffffc3affffff62U,
  0x121f000026dcU, 0x11adfffff868U, 0x55ffffff9c7U, 0x103f00000e92U,
  0xfffffb8cfffff608U, 0xfffffca300000f39U, 0xffcfffff627U, 0xfffff3c3ffffef5eU,
  0xfffffd5400000212U, 0xc18fffffbebU, 0x374848ba574840c6U, 0x4bad71995b444363U,
  0x508836a28181723aU, 0x56b24c41a6477f53U, 0xa3a6afc38137b839U, 0x3451a421c3a6b437U,
  0xd4554098b83748b6U, 0x9fa8d744410cc6bbU, 0x6354b335b0d95b51U, 0x56cdb582b7d2a0d0U,
  0x4ffac05ebc77993dU, 0xaa4d28515c554599U, 0x51d25581636755b5U, 0x718e74a3aeed567fU,
  0x7f815e81cdb6fd5eU, 0x6ea664bb81dc6e7aU, 0x8191a1ab9c56a95dU, 0xaa668d40a284b044U,
  0xbc6e4b879c58509aU, 0x81b98f686452aca6U, 0x6e65844a81b37f5fU, 0x7faa9f2099ae0cb8U,
  0x629fa65d9f7f8157U, 0x9d5c46717a566086U, 0x2fc328ad2f3539d7U, 0x32ae38e2bab9384eU,
  0x3ab833b923f5ae1eU, 0x3dca2eefaade6954U, 0xbcd4d6c99620d53aU, 0x813dc42ccbccce21U,
  0xf44327a8cb2128d5U, 0xd0dab3363d2ad3ceU, 0x3f3bd82db4b13636U, 0x45cfc358c8da22deU,
  0x2eacbe3cdc41c926U, 0xbf39234032262dc7U, 0x5f7f5c23756167b4U, 0x5398dbae7f7f5059U,
  0xa92a4b0c9db56f54U, 0x5eac6169197fce7bU, 0x939997b19a569f61U, 0x7c6d9d40a0979957U,
  0xa06460a299477388U, 0xac818857524c9f9cU, 0x666f9d4facafc662U, 0xd2a59381a3aeb4b8U,
  0x6c9a907fb7d78854U, 0xa75e5c5072685b95U, 0x7fd47f367f7f7f81U, 0x7f81d081c0d67f64U,
  0xaa287f1d408bc97fU, 0x7f817f8138c8fa7fU, 0x83818181977f817fU, 0xee7f817f8181817fU,
  0x817f7f81817f7f81U, 0x848b817f7f7f8181U, 0x7f7f817fb481ac7fU, 0xc5818b2281816a81U,
  0x7f81816c81d9837fU, 0x817f7f7f7f7f7f81U, 0x49aa330f363e48caU, 0x34b6eba8baa83f48U,
  0xd3303c0774a68143U, 0x45cb3f0f16c8d356U, 0xaeb5ccc0882fca52U, 0x945bbb47c5c6bc39U,
  0xb04337bbc23841caU, 0xd3d9a73e2f1ac7bdU, 0x4647d83ea9a2c141U, 0xe3b6c451bec37fd3U,
  0x3ec5ae4bd2e9c139U, 0xc03f484a50453dbdU, 0x3344262836293de5U, 0x1cc49ee735642633U,
  0xee3d2935ebf03f22U, 0x26d82b2f45399043U, 0xacc8d3d7c322d34cU, 0x5927d71fdad2c72bU,
  0xc73b37add7163fd3U, 0xe0bbc3283142d4d5U, 0x3539d218cfd0b432U, 0xaccab9ccc5d3d6d6U,
  0x2f91ab2fe9b4d72bU, 0xe143421b302228d5U, 0x4ce72c4746334ccfU, 0x27a881b2e8f64124U,
  0xe0403a5755bed933U, 0x3ec13fc870eb9b4aU, 0x93bacad9b536cc51U, 0x2042d04bcbc3b841U,
  0xa24040a9bf3442c2U, 0xd2bccd3b3e30c8c9U, 0x423fc92ec4b6b337U, 0x87c58115a8bd3ac6U,
  0x3be1aa32c796dd44U, 0xd149613237443dd3U, 0x28cb1a211b2132eaU, 0xdd2d8c4cdc62716U,
  0xf31f22223fadd72aU, 0x28e2261c39dba927U, 0xbdccebebee1ce02eU, 0xd52ee72be9d6cb1bU,
  0xd4231fe8d9191ce8U, 0xf0dae12120fbdedeU, 0x2525ee21d3e3d326U, 0xcdd2ed23cce648e1U,
  0xe0dd42adbd4f31aU, 0xe42f3a1c181923e0U, 0x15f50001589aU, 0xfffffffcfffff9b6U,
  0xffffeb5cfffffd9eU, 0x11afffff362U, 0xfffffdfd000000f8U, 0xfffffc49ffffeb15U,
  0x14fa70000ce6cU, 0x268100009e57U, 0xfffff62effffff27U, 0xe91e00008ff9U,
  0xffffee42fffffd6fU, 0xfffffae7000006f8U, 0x1837000000e4U, 0xffffd6e7ffffeaacU,
  0x2bfeffffffc6U, 0x6bf0001195aU, 0x1a266fffff9e6U, 0x3d2900002512U,
  0x21c0c0002ae01U, 0x1082d0000cc18U, 0x1b21000002976U, 0x12fc40000c7d3U,
  0xeff90000050cU, 0x1412000002001U, 0x1c50000768fU, 0xa23900000237U,
  0x6930000d523U, 0x431900000530U, 0xe3420002dae8U, 0xffffa9a2fffffd7cU,
  0x61c4000000baU, 0xdcfc0000bc6aU, 0xfffffd4e00000611U, 0xadbe0000c21dU,
  0x9f39000005c5U, 0x39afffffd8d1U, 0xffffc7040000cfe0U, 0x80820000ba9fU,
  0x11172fffffd82U, 0x10ab00003777U, 0xe33bffffff2eU, 0x335d6fffff8daU,
  0x101f500003cedU, 0xffffff0300006c6bU, 0xffffdee80000bc07U, 0x47bc0000041aU,
  0x541e00002f2eU, 0x13f36000004b6U, 0xd0ce8002a38b2e9U, 0x271a032bf616d1fdU,
  0xd14b3f2fef703e9U, 0x247f320f115182cU, 0xf925ffb700e4da12U, 0xeef4011af2ddc1dfU,
  0x10e8e9e302112024U, 0xf1ec06930a02f3f2U, 0x6d8ddfcd22af77fU, 0x271efb08b81806d6U,
  0x1210021010260de7U, 0xbe34edcae21f11f2U, 0x4e3abd01b3e103e4U, 0x4e936b2f52bfa7bU,
  0x24d59b1309b81beeU, 0xf5002653eb18f159U, 0xca980cf4cca4290bU, 0x103a1d39fac0cbccU,
  0xb0f924394c01e4cfU, 0xcfd7f1f0ead51103U, 0xb7e7ed08c9e840b1U, 0xaf29de4921d4e8edU,
  0x7feb502515f10f19U, 0x8273a1af3432f3aU, 0xdc47011510f42b33U, 0xdb1ac71638edfdefU,
  0x1f4c237e0517fc20U, 0x36e94905d435ed54U, 0xfdf9e50f1208cd81U, 0xd3f508f5e8d7cbf9U,
  0xeaf700071e01dd03U, 0xc324f9103df2e7faU, 0xfb161a07e30bf917U, 0x50bef3cf73eb816U,
  0x20726e5eb0515fdU, 0xe5d801eb46bf0921U, 0xa3e8e7ebf381c7c7U, 0x1cae270af2e96d05U,
  0x2650d6ef085590f2U, 0xf7e1c2e52fa5eeb6U, 0xd8c8d6cbf0ffdf10U, 0xf95b07b7e6240be0U,
  0xe9220a22d50c6703U, 0xe0c931071851e2e8U, 0xf532d90b03d7380bU, 0xac7711fe422dd847U,
  0x66f2f9fe00de1f3fU, 0xedbe1f4dfeb8d1aU, 0xcd11224248e86bd2U, 0xe1b1b5822bd2805U,
  0xfcfbb53e294709b0U, 0xb1a0ad158071d48U, 0xfd2857d7168debd5U, 0x314e66cc2e21b90bU,
  0xf56d3820a27f3a38U, 0xdbe0fd3e1523ff5U, 0xb416cf3ee3c8efa5U, 0x23d20724122c271aU,
  0xdbb0b36c6364cc6U, 0xfb1824671caf32a9U, 0x2f03f521d704e681U, 0xeb2bebfe4103f214U,
  0xe83ff908b6f21beeU, 0xf70ff206fc12c036U, 0x1b022904e6f6cbe0U, 0xaff7d823e13859faU,
  0xfbf7da47d914e7f5U, 0x250eecfcdd14cd36U, 0x2605cbe1050f2cdbU, 0x26d2df43e6f71521U,
  0x18d44709f6f7deedU, 0x7e7cc1437e0e29bU, 0xeb4bf222ca0cdd39U, 0x659e63f1134faffU,
  0xd4fddbd7d26a4655U, 0x12dde744fe22d206U, 0xa7ab3d19f41050faU, 0xced614413e231906U,
  0x90b0a381ad11af5U, 0x1e0835193d76fdb2U, 0x24ca257fffd7e32dU, 0xe4034a3ad25910bcU,
  0xefe0060c0ccceebdU, 0x68fb4717d21d0507U, 0x37dac2a4f4d75532U, 0x1f2c6705f050e897U,
  0xefe6fab6ee1d07a9U, 0x2d412c17d458d639U, 0x2f150323ffea1007U, 0x15ff051033e0e79cU,
  0x26f70fc50adfe5efU, 0x962418e0b6e313fdU, 0x2af2eefde603f435U, 0xec24f640060c0a7fU,
  0xf52e2dc3daf613f9U, 0x4e901e4e2f710f1U, 0xcf120407f608aaU, 0x3b1cecf637140ae9U,
  0x4a4732fc0ceb0235U, 0xb3ae51fb0afd09d9U, 0xaf2634ccb02e6813U, 0xf9f9e3f627d3157aU,
  0xc105faf9536929bcU, 0xe7e0e6fafefd06e9U, 0x8dcc5f715dc0f2aU, 0x17e6e3f92917b17fU,
  0xc1d10f5133212506U, 0xf7e417ea181c0cd6U, 0xc2e302d8231d2c1fU, 0xeaedd20603b6f4dfU,
  0xfd36dce481f4fb11U, 0x1a0c14e5e0fd93dfU, 0x207e127fef12e34U, 0x811127990dc7c21eU,
  0xe814151ff2fbd7e1U, 0xfa00eeff25ff0c07U, 0xeb040bf6201f3effU, 0x15eaf60012d6e319U,
  0x4fb17ddf0df37f9U, 0x10ee40fcee221c12U, 0xfffff9e903051bf0U, 0xef305f5f1050b0cU,
  0x50515f0fcf8fe00U, 0x1c04f712f20dfc0cU, 0xf506fff508fbf206U, 0xf400bff8031411efU,
  0xf6c2de35f9040113U, 0xe1f20bf404057f02U, 0xf7020118eb03e903U, 0x1114fce3f9fd06f5U,
  0xf10110f604161a0eU, 0xf515040cf706f015U, 0xd11cc15193febfdU, 0x4f0b1bd0f61e2605U,
  0xef0114d90305e925U, 0x81c1271ffffffefbU, 0x236ae0feec3011aU, 0xf52e0116e6ff11fcU,
  0xff10e501c50fe72dU, 0x1d1d4f39ecf70871U, 0x8f2f922f1cce3e3U, 0x210fee02ca520e00U,
  0x130fe91ee5fe2620U, 0xd241ccadcffe610U, 0x21eef7030a40fafdU, 0x12caeb21d2301be4U,
  0xf7ef16df1629044aU, 0x80cf9e8c2f624e2U, 0xf030f4fe2534ef1fU, 0x1bc3734d709e9fdU,
  0x38efcbf546c810d3U, 0xddeb0c0242311cdaU, 0x142e0fe419e9e89eU, 0x14f6f5d7dde807eaU,
  0xc4e87f10c1150bddU, 0xa71835c0db51c9fdU, 0x2b00381b20e1c435U, 0xff011a07f30ecc17U,
  0x1d261bf0f1f5d5b8U, 0xb6fcaf28ebdbefd4U, 0x838141ee8d52281U, 0xd70e2e27c20eec1dU,
  0xfb1cdcc18ced0adaU, 0xdbbedcdbbcf230e7U, 0xb5dbf8f1110f0edfU, 0xccd4e013f116db10U,
  0xf9f400f407f523d0U, 0x101127edd3da3603U, 0xf5115114ffefe828U, 0xe0fbe928fffbc51cU,
  0x3fd0302080feed7U, 0xba1423ec0de62107U, 0xcafcdae1e3dd14e5U, 0xef512f709d01bfaU,
  0xf31f2627f717eff5U, 0xfb09e2c9e0e30b0cU, 0x3ceb131bfa3212efU, 0xeae4eb15cad2fb11U,
  0xfc1bf8d6f8f912c9U, 0x8bbfb490edd810eU, 0xbdb81fe0f04d732U, 0xc122f5040bee1203U,
  0x17120aefe1f307eeU, 0xa24a57f11ffd0801U, 0x17df202341fad319U, 0xfb11e8fef2eb0615U,
  0xf1f0fb1b031137f9U, 0x4c3100824021993U, 0xf80012e023fd0ffcU, 0x19d20af1050127ffU,
  0xfce7f51e00012d08U, 0x16df12f33cf1e018U, 0x73e03fef9d08177eU, 0x41070d24de181d21U,
  0x82715e6be24a31fU, 0xc7161df7e3ee12ffU, 0xef19aab02a138106U, 0xbdaed01f3d022eedU,
  0xdf5bbc658113b39U, 0x7a93eac01865ecf9U, 0xf237089bdade01c7U, 0x1f48cfe8ea0be00aU,
  0xccd9ab01f45482dcU, 0x3a522b3edd24491bU, 0x34e591e244a5aa4bU, 0xded607ed500525d8U,
  0xcf1ace27f301dff5U, 0x1807cf2ef206f530U, 0xdef08107c8e828fdU, 0x9061c0b2846c8f4U,
  0xa20988ce175de01eU, 0x2415e510f4fb15fcU, 0x355b739c9e2f7f6U, 0xfe0b120e1ee40e01U,
  0xb5f1010a37c6cd19U, 0xe82786394be7d6b3U, 0xe2ee18fee6c10e2aU, 0xf181131527d31536U,
  0xf10634f2ec0a10eaU, 0xfc10f5f31ef7f1f8U, 0xe1d14401c6c32316U, 0x2279dd4df0820ecU,
  0xd2321ef1e348f33bU, 0xffff05ece71dc50fU, 0xd7ea253de8e524ebU, 0xf71e03180a0f02e8U,
  0xebf6024b05dac5feU, 0x88e8f1dd25dcfb27U, 0x1f5ed4ee012e80aU, 0xf2be81f4da1cfd0aU,
  0x3513fb04d81637fdU, 0x3f2f8e13f022e08U, 0xf2eae8e905f60efcU, 0xcefea04c716f33cU,
  0x1613052903c0d8b9U, 0xe5fc2fcceaee08f8U, 0xe9deeccef60014e7U, 0x48fadc30d23772f1U,
  0x2a0aa9d8dd431f07U, 0xada0c22e7ea1017U, 0x21f2eaf31b1d18fbU, 0xe517eb5221fdf610U,
  0x1ae53c1d0a2ce9d6U, 0x90e1220e515ed26U, 0x2e14e034ede6231cU, 0x1901d8faec1016e8U,
  0xe6d1f7ef101cc8eeU, 0xbe18d003b15ef421U, 0x2d1f9ddecb52763U, 0x1edde02f3a1e9edU,
  0x4588edf593041d81U, 0x1d00e8e302fe021aU, 0x290f0fd6efed9809U, 0x10cfdfbb0fb48e7U,
  0xfbf098f7122c2617U, 0xeee90fe8040913f0U, 0xdc0f403fb3ee3cdU, 0x8ff0d0d1181ce21U,
  0x5d01f28ebcfc8f5U, 0x443ce51909304e3bU, 0xe8150df018b8d1f3U, 0x3d611b52df91221U,
  0xcfd0fae99a20df00U, 0xbff5df3127e34d07U, 0x9c32c7248106f8dcU, 0xced23f28e9bab923U,
  0x21d9c9f13422e6e0U, 0xdf0208b9e6cee702U, 0x242fec100acf0cfeU, 0x27f9f7d8b0152d4eU,
  0xe81c1b0404fcb998U, 0x2a21deece4fd06e8U, 0xfe4a8eee317d8e8U, 0xce0ef704e61fcaf7U,
  0xed0eeac015cdd3b2U, 0xbca110cdd1818c5U, 0x1272b30e217f408U, 0xfa02f0c413e92632U,
  0xc0fccdff3e5f90dU, 0xfad1e5d20223f61fU, 0x2e181469fbd815dbU, 0xe4ff061ee4e706U,
  0xf5382613000b431fU, 0xebce167fc80b18edU, 0x44e4f0bbb4d4073dU, 0xfbf1d10aa7feefe6U,
  0xdad5fb130f2f1033U, 0xc3e72731d90ec0d5U, 0x24dd0000bc07U, 0xe312ffffac93U,
  0xe9cbffff325eU, 0xffff12a3ffff3bccU, 0x2dc3ffff0300U, 0xffffbe6affffc895U,
  0xffffed5bfffff859U, 0x501900002411U, 0x7e4d000059aaU, 0xdd0b00006d9aU,
  0x61b50000111eU, 0xffffe49d00005c32U, 0x2c1ae06ce42c42c8U, 0xd809d77e01ad4a0cU,
  0x26001181f508f5eeU, 0x3162db87fa60af0U, 0xbea179fa33342f46U, 0xa94607030ff948a8U,
  0xd1e7becddedcde81U, 0xc8f31cf42ae446fdU, 0x3be81e0ceff7ecd7U, 0xcb2609814db2b9dfU,
  0xcf5bb0ed1022edaaU, 0x330fca16f6294a39U, 0x4948d91c0e030a01U, 0xe12413d3cd654309U,
  0x310e46d807810d37U, 0x341b42e9074e471aU, 0x9b0842c9411df605U, 0xf046f6178107c9c5U,
  0x4506e451c1693981U, 0x16f872f7f4200f24U, 0x159a1c000f09aefeU, 0x137f20f50505cbffU,
  0xa4e80ebaf6f31b0aU, 0xae3413f1e361198bU, 0x142f46ec31e0c6faU, 0x25df07fa22d37f34U,
  0xfde2dbcb2e31f8eeU, 0x8e01e706bc81f458U, 0xea97d2d5a4f3eb34U, 0x23e7221eb638eae9U,
  0x15f52b37eefb27caU, 0xefbbd7e9d25d0e16U, 0xf30ae609f01e81e6U, 0x2cb8fed3b99c42feU,
  0xd3faedac20f3be27U, 0x38c8a19765fc2a81U, 0xd20ff6b482c0d15U, 0x2af5223b20ef0552U,
  0x481c197fd351eef6U, 0xe40ce83c3fd21337U, 0xda7ea163dd01ee9U, 0x9581d4cba0ef1a52U,
  0xfeda2f36172dd3d5U, 0x23b111b7e2c0f3c2U, 0x274828267ff9065aU, 0x7ec0133d2b0eede8U,
  0x65904b23d0289111U, 0x5b688111e513e01bU, 0x9de5cc51a8eae920U, 0xd0f5fee5f41396abU,
  0x1f04da1d7ffb25e0U, 0x570b065b903119eeU, 0xc2c71ce3b90b061dU, 0xabc4fb2b7f1e49ddU,
  0xd22314730c30cb7fU, 0xf76d370fe218f938U, 0xaafce69a28170013U, 0x37f0a8ebef1ce506U,
  0x12397b60396a290aU, 0x3bf935cc1c7f5925U, 0xc6212cd7e6f08153U, 0x2efc3eebc700a33cU,
  0xda03f8db17d2aa3eU, 0xf8fbb84ae1feee69U, 0xf4d158c2f6fe310aU, 0x13db7fc6ebe953f1U,
  0x5d02acbec07f9f4U, 0xf2102c7deae7d9f1U, 0x1005e4f7137f1c0bU, 0xc7fe81b79c37f1e9U,
  0x1ffbf51f29b8ee11U, 0xec91d12232ecd944U, 0x73b2136d8df4cdd8U, 0xbbb8de08d648102aU,
  0xb0dbc304eb3781d9U, 0xdae8e88decf49fc7U, 0xe51539240a1dd00dU, 0xf62ac10a2b26197fU,
  0x4b290e08d7422c3fU, 0x9adee8fc4972a8aeU, 0xff29ac2f5a087fe0U, 0xd0faf9081927f21eU,
  0xd6c7ea1e1b81e2dfU, 0x3c9beedcc350721U, 0xd431dea4da349bb7U, 0xcfb1f68b1c81f1f8U,
  0xaef9db1b420f966aU, 0x2a20dd3106150d1eU, 0xdbf81ded070771e9U, 0x5e0ea1dd5810bceU,
  0xe0db09e405f20d81U, 0xdaabe9fe66de001aU, 0x76ec25491eee25e4U, 0xe064266309cafc58U,
  0x62c632c148bd4dU, 0x81b6c5a07462b9c0U, 0x3a2501fdf558e92bU, 0x37e32b3833e2b4bbU,
  0xe6237ff45a59070cU, 0xb3283bcb119bf8b6U, 0xc29b26d195cae9efU, 0x933e1ffd7feaa6f8U,
  0xadeffb1b28d02131U, 0xd0da7fc80a21edb6U, 0xfcf21f14200e17f1U, 0x34fecce91619e715U,
  0xfb0f150c041e2e0bU, 0x13fbf90d7f0dff00U, 0x4ebd07c5fb04e428U, 0x11fd2f6c17b9f941U,
  0xef1a0ae5b67f14f8U, 0x1f01212fc102e4ceU, 0xd6dc2ef0b0442436U, 0xe881b628aef693fdU,
  0x2fecf70cd2eb182eU, 0xefdb1b4e087f07f2U, 0xcd402cd7264e10fcU, 0xfb0016b8eb2735f3U,
  0xa21a16811f13323fU, 0x1cfdacac45223bc6U, 0x44c637f543bcdf4U, 0x6cafcd43b6d4b4d7U,
  0x43250d7b6311ef43U, 0x44cc29c329b91e50U, 0xef12ad18c3271833U, 0x611863220d423d81U,
  0x60afd5c0ff91925U, 0xee0df8284981f8f7U, 0xeceafc02e7d3f31dU, 0xae40055815c5427fU,
  0xa1b612040dc1f0d1U, 0x51b7a701a0f8c410U, 0xc3cbd917d80e24a9U, 0x4f91d17ff5110992U,
  0xc9d441993e0b270bU, 0xe00e8f7fdc60ff2U, 0xd0aec190d7f2ff3U, 0x111a0e0e20ecf1e2U,
  0x7f093c09fae0f201U, 0xeaf608d9602fd94cU, 0x8ecb93f50f004f8U, 0xe701e7d6f5daed27U,
  0xf05e081fa1eef18U, 0x6f8f552ef08d617U, 0x2f061dd9e41cbcefU, 0xbd9f2cbf67fc925U,
  0xe3fc0020e8ebea25U, 0xf6c71f4fa4fbf7f0U, 0xe215d1ff28e519U, 0xe2e7deffcd1e8111U,
  0x41853cc7c0df108fU, 0xfa9f139f7ff550a8U, 0x702d5163092b38c7U, 0x40f7ff153ed2df7U,
  0xf307140cfadfcd01U, 0xf804e51518f3b8b5U, 0x7f76091a09fef50aU, 0xcf210a33e6ee1cffU,
  0xaf3e2f58c43112f7U, 0xee1d26ec16cfdaf4U, 0xf47f9bf81c8ada04U, 0x59f9c1030fc6f6feU,
  0x211bef1005cc1581U, 0x20f2f0e7252ad212U, 0xb7dfc2fee1121952U, 0x81de7b0cbfb90391U,
  0xd55be3b0d50a54cU, 0xfc022dc3aa2c4f07U, 0x2e421591d0c4981U, 0xc507e1f4e8264ce9U,
  0xfad8bc0ca8ea05e6U, 0xaeede70007b101f5U, 0xc0cc2ffbb20681fbU, 0x4b5fc12e6e619d6U,
  0x2ff221065b4ae74dU, 0xfe62fb3f9d3cee7U, 0xf310340f7fe8e6e0U, 0x4127ccfbf758c8f1U,
  0x4b4581ebe5121738U, 0xf62413fbc922e1f6U, 0xe719e80619e622feU, 0x678812f00812fedcU,
  0x7fe9e2cd0218e4daU, 0xf8e9cdea2f19d608U, 0x7f1d741245fd9fe0U, 0xfa190aef60f54302U,
  0xef31e2d128a2ec00U, 0xffb90deeccbccd81U, 0xf40b28ca1f3f2c13U, 0x51fd16b9c82638b9U,
  0xc6cddcce55523226U, 0xe82bdb81ad1d61b0U, 0x14fd1127de443612U, 0x3401c70b7fba25f3U,
  0xd83e08d32559e516U, 0x26e1d330fe09697fU, 0xd8f30027c8e154f9U, 0x4308241c0dcd2adcU,
  0xce41b9cc2430b42bU, 0xf27fe84208fc53a5U, 0x709dd40e09e6fcfbU, 0x13f216251b0412f6U,
  0x271fdf0e7ff5060bU, 0x220e0e200e9eb16U, 0x1e0411f015b9fe81U, 0xf0e4e8f11ff70fe9U,
  0x90a34390ff11f04U, 0xcc032319e6f6fca7U, 0xa0c0e20203a1ee4U, 0xe21781f846123c2dU,
  0xa204cb63e0a34a3bU, 0xf602f514108124d8U, 0xeee8dfdfc5d22ce6U, 0xf340da0612ec3400U,
  0x2cc1e33c7f39bd38U, 0x4bf717a55808ec15U, 0x16e905e0dcef124aU, 0x7fd51be7bce6f1ebU,
  0xee52c2aa111c22b9U, 0xe7221b043e06e017U, 0xf9ccfec4dad3a238U, 0x3c3cf7ffb01b4f1U,
  0xe4c463d8da4b01U, 0x2af71549388116dcU, 0x1e05e1bcfd3e22feU, 0xbd18087e10887fe3U,
  0xebfee2e312a3fedbU, 0x2866fdc94ae41a3bU, 0x63a36ee32e01643U, 0x11eece812c11152dU,
  0xf6eb023e018fe5ecU, 0xb0f7fc810d0abd10U, 0x493fb7263628cb71U, 0x315cf3112ae23e41U,
  0xaa10f1ec3240d47fU, 0x146e02f6e237a7edU, 0x9f059db88c1ae94bU, 0xbfffbdfc21a907efU,
  0xb21a52a1fdccf19cU, 0x11d632147f08e102U, 0x59dee7e8fb0211fdU, 0x5e062b38127ff0d5U,
  0x9080cf7466028eaU, 0x30fbc903434606c6U, 0xf3fef6e503903ff1U, 0xbaee811a223c20e5U,
  0xea580efe560a2824U, 0x6c270df5aa02a03bU, 0x46ead117fe81c9f1U, 0x7f1ef4b5052e0350U,
  0x12b2ba2f8ed334dfU, 0xe0372aeac6faefe2U, 0xca1aeceda8d5efeeU, 0xf60aeb1cf0f314f1U,
  0x196ad61a7fffd4ddU, 0xd9137f2ddd16e738U, 0x6e431d2dd1f040bU, 0x3b070f1fe7d70a37U,
  0x41280c45b8be14feU, 0xecb135cdc7ca077fU, 0xe203f50f5017f1baU, 0xf4e101fe0cd713e7U,
  0x53fcfb264d0cfa01U, 0xf87f2c5d1f423d1eU, 0xf50e0df28144d7b7U, 0x1f4f29ecbc0ae728U,
  0xf8ce3efe29322111U, 0x95f4fb06ff2f2aeaU, 0x81fa31e93afa0439U, 0xadfe3fd82ffcfff8U,
  0xfcff7f1b170508cdU, 0xfae7d30009a504e0U, 0xc5efa605fd21ecf7U, 0xeeedc5dacdf7f91fU,
  0xdaee005e040e14dbU, 0x1a30e6ec207f1e24U, 0xe2ef2134d0f92945U, 0xe3f92917ed041e81U,
  0xe1e46e13dfa3fc9U, 0x2b7ff3f605e9f6f3U, 0xfafc30dd0efa28efU, 0xea190103c0ed57b0U,
  0xef1bf90df0e4c6deU, 0x2e15c8c60d81cbfeU, 0xf1d5e0e4ae27e443U, 0xfb0aed14f6281410U,
  0x814d0ce72de6ac15U, 0xc22c1211faece0d3U, 0x141f8104e833f83bU, 0x20251d85e7f71e17U,
  0x1cae15498edc1404U, 0x7ff8e009b935f24bU, 0xe70d30e6f6d60bd3U, 0x6a030390c06cae0U,
  0x8110542bf211ec0eU, 0xf0fa30aa04e0f929U, 0x45f3f2f98630ebf5U, 0x1b944efefeb317cbU,
  0x155b1dd0bafd2ab5U, 0xf511e07ff5241d0dU, 0xe3f4e41216f41f26U, 0x7ff7dc21cb1bdbf3U,
  0x2d48353ee5ec0c26U, 0x7f08ed39ff3a3a53U, 0x142caad90a4d3639U, 0x36d4e4391dd80fbbU,
  0xf9ddedebfa9c1417U, 0xaf43c5ef6025239U, 0xee7fb333739556deU, 0x6581fcd70b36c52eU,
  0x5ae8221fe3c1b81cU, 0xf6a95809cf24c400U, 0x25f00ecdd12adaf7U, 0x37f11d11210606b9U,
  0xe342f5811a1fd6ecU, 0xf02ad70119b0d6fbU, 0x7eb3efc013d2ce4U, 0xdfc67fd94ee21fe7U,
  0x2aef48d2e6f106ecU, 0xd581e9bda93bbc0bU, 0xb02e2a30222da6f4U, 0x72110015d7e4e02aU,
  0xf44e0516fb102231U, 0x7ff01bfc27532bdfU, 0x319ef720c4c92a1fU, 0xecfccc62c90a0d22U,
  0xf344100e127f10baU, 0xcbd4fe19fcce04d9U, 0xdfd24f527d31e07U, 0xdee3eb14f9db81fdU,
  0x99befc4bd100f208U, 0xdcdaece8ebcaef7fU, 0xf0bf530c093031fU, 0x9203bfd181eee4ddU,
  0x16db1605c973cbf9U, 0x232c65e73b466371U, 0x7ffedb53bb5f67fU, 0xc7f686e7c213093aU,
  0x612d121b144ef8e4U, 0xf2270ab7f4e5d29cU, 0xef05ea9c6081cbc8U, 0x161526edd1bd3b59U,
  0xd91718aa3be5bcd1U, 0x36c28bd37f6e781U, 0x1500d92f24260a37U, 0xa20edfeeed0e8d1U,
  0x81f204f1eb21b4f7U, 0x8afffc158e0c13ddU, 0x7ff02a19fcbb8867U, 0xfd490e0e4445f1a3U,
  0xd2183ffe278999e8U, 0x4c20d222063e1533U, 0xef215407eff9154aU, 0x43bc7fd009c92bd9U,
  0x61eae429c9fb0fe6U, 0x1cf27ffac90e26dfU, 0x95214604fc20f4beU, 0xe0d7d17fc0ee772dU,
  0xd1d3ed4dfab067ddU, 0xfefd12c428041dc4U, 0x813709d913bb0df9U, 0xde65d31fffdbfdd8U,
  0x4d09ddfa1648dff4U, 0xf4eef43decd00f8dU, 0x2b09e915372a211fU, 0xd90181fc09051e2dU,
  0x810a06f72bd132e5U, 0xf76f37333017e949U, 0x6fb7d6049b1bf011U, 0xeec4d72d09e60c11U,
  0xd456e0f6f6ef35c4U, 0x41d1ad25ee1c7f27U, 0x302c2e48ceacff2cU, 0xe1f4c6a3e10df9ecU,
  0x18d3c6347f28d60dU, 0x5a1cd494791501f3U, 0x5ace73d49d264527U, 0xaeb5ba7fe9fe73c2U,
  0x25f51358816c92fbU, 0x4fee02cdfe815e4U, 0x37323a8dd0ec603dU, 0xf2f41e2bc51d02f3U,
  0x25e27ff43bdc1f42U, 0xc95d36f711a7affdU, 0xdbf94517dff2d6fdU, 0xeed531d0c227f37fU,
  0x65ff710f34bdb1aU, 0xecfd1747e9f21f6aU, 0xf47f2f079f00fedaU, 0xa12cbf223f06fc3eU,
  0x84c4de4d19d92428U, 0x32f8fdaf20a92be7U, 0xfc01ffc6ff7ff44bU, 0x51ea77866ddbf46bU,
  0x9b1e0e68e44ca0bU, 0x227f571c25e013f7U, 0x7ff4f7a8bcea1e1fU, 0xb15a17c1e90026f2U,
  0x9132bf8fd1fa28a6U, 0x21151fabfa32dae5U, 0x4f7f4219224c0521U, 0x4623e63409c2060fU,
  0x13eadb1dec1bfe81U, 0x52d4416f21afb01U, 0xc5ead209f9e8cb12U, 0xdcdcc5dcaf81d3eeU,
  0x5e32e3d408427ea6U, 0xd1914cdc70f43805U, 0xa8fcf1d2c3f204a3U, 0xfb7fd719c4f90111U,
  0x3d19e009044b0208U, 0x4af5d2fab44dfef9U, 0x417fb91619e84243U, 0x60cd6a0adaec1adeU,
  0xc6d11a1ee52a111aU, 0xe9e771e32036e63dU, 0xf357f030dceeb09U, 0x6bef0fc1d9fadaffU,
  0x337f25394e0a32c3U, 0x116430872f30b1eU, 0xb4c381b615b81b27U, 0x1f317fefdb214c2cU,
  0x1137ff2714005e16U, 0x5ec300ddf0c0736U, 0xfb20ca025ef44100U, 0xcbffbb3de17feab4U,
  0xabaa1916100ef71aU, 0x1eebe6eef212df51U, 0x1a14e7187ff10908U, 0x31d5c32bc9427fceU,
  0x27fee8b9fccc0aU, 0x16f2a75e325523edU, 0xeab00001295U, 0x1630000001afU,
  0x2e9200000f43U, 0x1e300000086U, 0xffffe6d000001abaU, 0x12a8000017c5U,
  0x9d200001a13U, 0x251d00003f86U, 0x2267000012acU, 0x2cd700001f2fU,
  0x22d400000186U, 0xfffffc5100000cd2U, 0x1b9600001fdfU, 0x1b1effffea8aU,
  0xcad000033beU, 0x3a5c00000c7cU, 0x1ecb0000888aU, 0xe85fffff293U,
  0x2751fffffb4bU, 0x24460000167fU, 0x19f800003202U, 0x58e50000062bU,
  0xfffffa2a000050f3U, 0xe5800001fb8U, 0x8a7000015bbU, 0x1180000008aeU,
  0x166efffff1f1U, 0xa23fffff2b1U, 0x2653ffffea1bU, 0x4868000030f1U,
  0x791b00003436U, 0xffffdcfcfffff6ddU, 0xffffed9effffedfeU, 0xfffff1c300001128U,
  0x18ff000013ebU, 0xfffffc3200000711U, 0x1d3900001b02U, 0xfffffe3f000011b9U,
  0xffffdbd100001717U, 0xa36000018acU, 0xfffff66e00003ec9U, 0xffffff6c00001323U,
  0xfffff058fffffbcfU, 0x114600004129U, 0xdca000007fcU, 0x176000000bcdU,
  0x2533fffffe76U, 0x2ce00001595U, 0xfffff77500002a6fU, 0xfffffe170000105fU,
  0x874000025f5U, 0xfffff723ffffeacfU, 0x26e10000b936U, 0x1e8200001f47U,
  0x114b00000f18U, 0xfffff04e00002a7bU, 0x188c00001a37U, 0x211200002396U,
  0xffffedfa00004c43U, 0x24b60000006dU, 0x16ee00000139U, 0x4c9a000005f5U,
  0x2e30000229eU, 0x1a3f00000842U, 0xfffffef400001abfU, 0xe7c00002340U,
  0x141affffebd2U, 0x1d9a00001077U, 0x20e000001622U, 0x4dfd000013abU,
  0x11ba00001a87U, 0x126f0000104cU, 0xe31c1b090ab3fb16U, 0x6e3d00ee4e1f414U,
  0x21d4e3e517e4092bU, 0xe8e6e2cecc36fe0fU, 0xdc8fd04eb3d2025U, 0x17fb0bdffdbf171bU,
  0xdc1bfc0bf3ec29fbU, 0xbb4fcf1021b1bf6U, 0x38cdfb18fd2eecfeU, 0xb5e003c881dc2724U,
  0xf40c86cef4230b25U, 0x11fa9e70eebc50aU, 0xed0f30ea3ced3810U, 0x2024fd0bfa190fe9U,
  0x281f08f30030e604U, 0x20a2181704b810e0U, 0xe5fa1ac923e4130eU, 0xf2fdfc2a0916efd8U,
  0x8d08dfb10b85f37fU, 0x7ff48adcc7f90881U, 0x25ed81817fd20b7fU, 0x2ef381a1bf438c7fU,
  0xf2ee9b1bdd4c7af5U, 0x7ffd2bf33e81e940U, 0xca23ac4eeb0e16e2U, 0xb3d152c8f67f4d17U,
  0x39fff310043207ffU, 0x8d0027fc999b867fU, 0x17dbd28123fe0eb0U, 0x317fe1e8e82b3931U,
  0x6297ff227c978ceU, 0x514b917ff8ff17daU, 0xfca9f9f462f2f3b0U, 0x8a8115edefabfdbbU,
  0x84ee7f2b283436e1U, 0xddaca6fef367f1c6U, 0xe22006f307cbe920U, 0xcebcff4051f0d0fU,
  0x1218da0b1dbdf71dU, 0xd6d8b1c4dd3ce624U, 0xf90cda01f03927d4U, 0x1e120e1c1218e607U,
  0xe233ffd2f8031f0cU, 0xd4bef5fd091c2a06U, 0x3129ffd40132e5faU, 0xebfe0e2997c61a09U,
  0x7f21c0e417d50b29U, 0xff1bbaa0cb0eea1cU, 0x62025ed20ef6513U, 0x3024f02a13e4fb3bU,
  0xdff00eec09e41bedU, 0xe39d1d07f6e4fcdeU, 0xbd1020281ce5f2ffU, 0xdd03d909f43322d1U,
  0xa197fe20a81ecf2U, 0xded39bd6c38112efU, 0x3681ed01f6db04f8U, 0xb6ec929fda20e3fcU,
  0x7c81fe03d456fbfbU, 0xeb2311bcf9927ff8U, 0xe813b539e3150adfU, 0x99f8dddafcdbf517U,
  0x258df30a040b1dfeU, 0x9e81488183dfc4d7U, 0xcdf88dab097f0568U, 0x15d37e81baaa9f24U,
  0x1227f40f7fe534daU, 0x21f19ff1f97f7ffdU, 0x7f811431f17f86ceU, 0xa7c71e7ffec27fd2U,
  0x3981f91c200c377aU, 0x89fcf3247ffa8bc4U, 0x7f7f908f7fe7b2c5U, 0x82817f7f7ff27f59U,
  0x7f0d09e6b7814682U, 0x7f7fb2bf7f7ff28dU, 0x8112d77f7f81007fU, 0xb481819b813ec536U,
  0xb281db7f7f7f8181U, 0x7f7f8c817f81817fU, 0x7f02817f7f817f7fU, 0x81077f0d9bddc3ddU,
  0xee8416147fe37f81U, 0x42f1702dbedd817fU, 0x7f7fd6774a7f7281U, 0x7f81f9c681fa9e7fU,
  0xf0987faa81e901caU, 0x86a17f9081a5db7fU, 0x7f13d47f817f7f81U, 0x7f7fcd8198810c81U,
  0x50df0f705c1ece1U, 0xe1df90bdd87d2007U, 0x2968f912edca81fcU, 0x99ec9da2d90dfde7U,
  0x473e70ee46cf7faU, 0xe675187f1253a1f3U, 0xe819cb2dd7120cc3U, 0x1c08e2dffce2f70cU,
  0x177ff403200f2a0aU, 0xb96f5a6fa9f549cbU, 0x6e7f81e4239c116cU, 0xee27f94817fad0fU,
  0x2314ef1e43e17fe7U, 0x1fef89db6b94e1f2U, 0x8fb2167fe6977fccU, 0xb69a14f7e884a3f2U,
  0x577f40e161c2202U, 0xd6fdfa23fbf17fbfU, 0xf9f7f934eec41cd2U, 0x218e4fbf5ef06f1U,
  0x26c73025eff7f6eeU, 0xe9d6c8f4b8fb2905U, 0xfe82a00e332eaccU, 0xdffa11b91a1826f8U,
  0x1e312303e7122fccU, 0xc93304f4f1020134U, 0x2dca19c00efb310aU, 0xf1fde3e7b82b81faU,
  0xc4d812222132U, 0xfbe8b8bc89c9cb1eU, 0x40fd4fa23ed02efU, 0x41416ebf61b0326U,
  0x1feb18f2f60fdc22U, 0xbcb70622fb951fc3U, 0xecd5ea4609f10e0cU, 0x7ee160a0ef3d91cU,
  0xb809f77ffbb07fb4U, 0x474a4dce3fc16faU, 0x1d107805cccb07eeU, 0x34d1a481bafb7fdcU,
  0xf8087f15e32f8101U, 0xc4ce0bf15047ec81U, 0x7f1d7f40cc1c07caU, 0xcb557fccfcdef126U,
  0x320a7e0832e9580aU, 0x83f62e0f8b7f62a8U, 0xb9ccb6c942f60ec9U, 0x819ddab6a8a8f249U,
  0x1c18958140d032d1U, 0x16097fb5e3f4dbf6U, 0xe99122ed2002fb7fU, 0x81ba0cf1e594feecU,
  0x2af49f55e4665202U, 0x1e887f09f50efde4U, 0xf8fafb37e8ec0feaU, 0xf921ec1ef71a06f5U,
  0x1c193126f4e0f2f0U, 0xe3cde5d8caea26f3U, 0xfe291df3df32e32aU, 0xeb0e0e0b0fe6f6f4U,
  0x1c28152addf928deU, 0xc41ef06d5f7002eU, 0xed0c21231f022d02U, 0xdeed0210ca2f45fdU,
  0xb72bb3e202ec103aU, 0xeee1d2cdce04ac26U, 0x2600e1012decfc11U, 0x90a2ae90ae9e9c8U,
  0xe4d60c0bf8eb1c1dU, 0xa6eefffcfc81d6caU, 0xd35e21107f6f6ebU, 0xf4f90c0ef9f41b06U,
  0xffffff67fffffe27U, 0xffffce5000002d41U, 0xfffffddbfffff6dfU, 0x6368ffffd6beU,
  0xfffff21c00000b86U, 0xffffff5c000000f0U, 0x4818fffff5b8U, 0xffffffa700000809U,
  0xfffff93afffff747U, 0xfffffd51000046c8U, 0xfffffd04fffffcf9U, 0xffffb3920000010bU,
  0xfffffbb4000000abU, 0x279d00000694U, 0x6e18000090ccU, 0xffffe09800000284U,
  0xfffff9e7ffffd558U, 0x4793fffff3a7U, 0xfffffb0dffffebd8U, 0x82fffffd46U,
  0x123ffffe317U, 0xffffea7efffff65cU, 0xfffffe23fffffe02U, 0xfffff8d8fffffe71U,
  0x76f0000343dU, 0x407ffffc853U, 0xfffffc93ffffeabfU, 0xfffffd99fffffd11U,
  0x1a6ffffe8edU, 0xffffd76500000c6bU, 0xffffffe8000044b6U, 0x2e41ffffec39U,
  0xfffff1c5fffff320U, 0xffffe17cfffff569U, 0xfffffaf6ffffcf1bU, 0xffffe0b0fffff858U,
  0xffffee0500000061U, 0x3e9600000034U, 0xfffff691fffffc72U, 0x5842000001bdU,
  0xffffd8e1fffffdacU, 0xffffaaaffffff8a6U, 0x1d5100007938U, 0xffffd0b5fffffe37U,
  0x5a10ffffb4f3U, 0x516f000005d4U, 0xffffbeb700002cf7U, 0x27d00000530U,
  0xffffeca100003607U, 0xffffbc7200006d66U, 0xffffed61fffff54fU, 0xffffe315fffff8ddU,
  0xffffef55ffffd1bdU, 0xfffffeedfffffc8bU, 0x5d9fffffe00U, 0xfffff24ffffffae8U,
  0xfffffb18fffffdc6U, 0x1f9fffff8d3U, 0xfffff377fffffa1cU, 0xfffffef20000638bU,
  0xfffffb6cfffffcd4U, 0x304300005df3U, 0xffffca4efffff919U, 0x7f5100004e69U,
  0xffffc0d100000014U, 0xfffff244ffffb970U, 0x2a9ffffea47U, 0xffffe917fffff74bU,
  0xfffff5d700004da4U, 0x210fffff7caU, 0x33400000113U, 0xfffff6d8ffffff81U,
  0x14ef07f3ff48e2e1U, 0xf23afbd1cf17a8c6U, 0xe80a0c39fbf8d80bU, 0xdc02d2f0004b2f07U,
  0xbd151546c93926daU, 0x1702f2f202f00db1U, 0xc0f7fdf9edd7c9ffU, 0xde1e02c91c3408f8U,
  0xf3724f0d92ca7ffU, 0x48c3cf2c38fedcb1U, 0xe3ede60d10114928U, 0x12e1ffbcddc3c2ecU,
  0x16ecf91cfcfef7d4U, 0xffefea50ffc3e5U, 0xc20e2fbfce1ed0cU, 0xb5d003341fe140bU,
  0xd47f220973132dddU, 0xc92f0df2e92df02bU, 0x50c03035bc2b1518U, 0x1df6fcf901a42952U,
  0x12d0beaa52d3f02aU, 0xb5d63b483445f8a2U, 0x1b65b5dd9a311eb8U, 0x9e6c2d11f8101aebU,
  0xfdce05e43ae185e6U, 0x479b481a4b1b45b8U, 0xf91a12c2bcd90aeeU, 0xe4c7561522020bb4U,
  0xe8d660e781129a62U, 0xbf3a29ee22312ad0U, 0xd4eef1ccde77baffU, 0xc09b1f0236e41611U,
  0xf725ce2123f4e0d9U, 0xf106d3fbc503f43cU, 0xe4f636da60d3dce6U, 0x30cbe84d0ef23abcU,
  0xf27fa15242d1e08U, 0x251729f3f51f0d17U, 0xf8df40ef484a1614U, 0xf1d7dcbe51ea1428U,
  0xb6031ee1dce94517U, 0x272511ff9307e063U, 0xfb253a292217f6f7U, 0xbb421fea2ecff0bdU,
  0x3e92a1b0fe8ffdaU, 0xfefe24d216eaf150U, 0x41f23cbef6e40f3bU, 0x2926e5ce0e371228U,
  0xde05091aec7fef38U, 0xbac33d20e9e40c30U, 0xf1a0e2641403f10aU, 0xfbcfe7f0c17d2109U,
  0x16ea1924ddcc2ee1U, 0x140711e548ec1421U, 0xe300f03d13de4905U, 0x1214242e14b31cdfU,
  0x41315eb2ee4e5dcU, 0x953ff43a22db14b3U, 0xbe3a50cb3c7531fU, 0x4f01826d347e914U,
  0xfe9727f100f781fbU, 0xfcea35e7dc1bf73fU, 0xc1fa182726f4c414U, 0xb20b610301fc9419U,
  0x13cb111312e10719U, 0x1806e8cf1124d2fdU, 0x28251d25f016a7d5U, 0xc4f5dfededf622c7U,
  0xdbee4cfa232c11aaU, 0x2bcce8de3dfff0acU, 0x3f2e5f59541f4ecU, 0xbf413438c0ec0c23U,
  0xb80be8d8ddf32befU, 0x2344df12001c21deU, 0xe5d70742e2b7030aU, 0xd44df567fc1ec731U,
  0xdfc6430d2433f11fU, 0x3f06bc3f23e3e312U, 0x4ceec8eca8a967e0U, 0xe2fceb0ac62fe7f4U,
  0xef350928150b37dcU, 0x28dacac22cfc0cU, 0xfc0a9525ec0dead8U, 0xf1e8c34a09f4d5U,
  0x4479180917ce0617U, 0x22939dfdbffeaa8U, 0xdd33052b1d26c803U, 0xdd88da7fb935fcdeU,
  0x73f7dec309fab838U, 0x3129fcb1e202e903U, 0xe40716fdb8f3e9e6U, 0xbcf41402f1370c59U,
  0x2be91ac912ec2527U, 0xdf93e30141bba0aU, 0xd40a14ec51e52141U, 0xbfcdeedf9db03e5U,
  0x1efa28be33ede15aU, 0x3038311d650453ebU, 0x18ebe703e8072323U, 0xd2f3ff5c0bcdde8U,
  0xf8100e30d9ea19faU, 0x2918b7e341f21a01U, 0x5fde514dcfb297fU, 0x202a29f9e413fa50U,
  0xf00b1d201c2c07c9U, 0x20e1c5f5f9440af0U, 0x1814cdbbf1e1cb2aU, 0xf109d7e935f606ffU,
  0xf4dc37f4e90afddaU, 0xdf812e0000b110eU, 0x1800d91fd60deb36U, 0x81e627230500ee11U,
  0xd30de70bfaff023cU, 0xef48191d06e21520U, 0xea12f3380919120dU, 0x110dc211e3cc2815U,
  0xdef7c93c12db3119U, 0xffe7012409d6e60fU, 0x25fd17e4c90adf3eU, 0x6140603bd19d4ffU,
  0x21edf40ebfeb26faU, 0x15e802bc1fed0deaU, 0xe6ea3a38e606eaffU, 0x8281b06e20e1c58U,
  0x21ffd131fc051013U, 0x1c9f2ea1207fcd5U, 0xf6ee37efe8f7f402U, 0xe3dff92b1254f802U,
  0xd5690009fae6cce0U, 0xe911e4e406fc090aU, 0x1a4f1202ead9121dU, 0xfb47f40114115affU,
  0xa14f7fdff06fcfaU, 0xe719c2feff01fafdU, 0xe05d0dfe04e1060fU, 0xd552ef6ef90607faU,
  0x633e40f0c411414U, 0xfe07f5d8ec1df2ebU, 0x27e5e7e2ee0df4e1U, 0xefe2f10439610706U,
  0x7ff1eb09db535c04U, 0xee01ed1de0e776feU, 0xf94200f5e612f727U, 0xd00a1b002de15ce0U,
  0x18223ef1dbf3171fU, 0x423b60c14cc1cf4U, 0xb41cc3d90940f3a1U, 0x9110db22ededf8c8U,
  0x14e8d3611ee7e208U, 0x62f3a32d5fae702U, 0xf0de131f05fce00eU, 0x28dc19350d0cdcU,
  0x10dad0f6e1fad637U, 0x41e2e222ef1fd4f6U, 0xa902093e992ee3f0U, 0x16042d64dd21c8f9U,
  0xfef0b318bcefead7U, 0xff2aa9f5d3f81b03U, 0x3eae0edcedcd20fU, 0x81ea18bbd7cfe300U,
  0xbc31813e60c2428U, 0xc632fd3c1049dbceU, 0xd1f2e83f2ff9e7e0U, 0x812af7dac700e31dU,
  0xfb38d5f8d6001c0dU, 0x32f9301b00f11003U, 0xb8e8f6e61ceb020cU, 0xedfe1f732f3140aU,
  0xf7cf27f31204dcU, 0x19fce8001bd3fa0dU, 0x252f2913dee2ffc3U, 0xfea0407451cdcd0U,
  0x5f716c6eff1efd2U, 0x51f9e6150cf402e8U, 0x11a21f04cf0f3ffU, 0xf3320415eafdf00fU,
  0x120feae2f629ef09U, 0xf611e50c092e09e4U, 0xe60b09270602121fU, 0xde151c18e60af1f7U,
  0x4e0f31cde110ef1U, 0xf721c008fd14d50eU, 0x35132d1cecef2cf6U, 0xdbf8ebef8104fe14U,
  0xfa02108ffa0d09f5U, 0xe8fde1e5e80903f8U, 0xfd0cf60bec052694U, 0x4d20205fcfef406U,
  0x18f11d0319002efaU, 0x2eb16f615e52af3U, 0x4fe111e07062d01U, 0x92913cfec1507edU,
  0xcc0e0c05f11126e4U, 0xeff8f41d1df5f619U, 0xfed13ebf117010bU, 0xd83d06f33ffaf9f2U,
  0xf6f3e80ef1e4fde2U, 0x42cfdec120dcfU, 0x810bf6d4dee806fdU, 0xf2e9e64f533beaccU,
  0xe61cd91dfc29ff15U, 0xe1e2215e24f0538U, 0x14e5241202262b00U, 0xf72c11fb1a53040cU,
  0xfc00220fc2ecf3c4U, 0xdb0ee91e0b32fc52U, 0x282b21f7240ce842U, 0xe317ef1ce4102c1cU,
  0x3909fff2e51d1104U, 0xe2c5fee5e3eaf5e3U, 0xf2ef1e11f9e4e4f6U, 0x3cde24de1641e7f3U,
  0x210ef31c040cecU, 0xbf1734f0d2b70629U, 0xed16100bd03bfa26U, 0xbb0d12cbcdf7f034U,
  0xdfa2c140a3636ecU, 0x320ad5f0cc1ed6f2U, 0x250ddd190621f6f7U, 0xebc71381d409fc18U,
  0xdd043af5f327103fU, 0xe011f6c835001b33U, 0xbff1d937e327ebcfU, 0xdbe507f4f1ec2301U,
  0x1e280944dd100309U, 0x4de01d0123331debU, 0x100d0cf5f14be6f7U, 0x1504350ed30edf4cU,
  0xf0f0e30d0214fa30U, 0x2be2d21e1931e0f9U, 0xa0ee8e90d00164aU, 0xfd1f01260c03c9f7U,
  0xe5011f2407e93e02U, 0xdddc08120a271536U, 0x3cfec02cbfcf8bcU, 0xf0f220fd12fe270bU,
  0xc00e3cf2d0cccaf4U, 0x882abcc832daedf1U, 0x1cfecb181f65dafaU, 0xf3ece92cdad3c3d3U,
  0x61aa00315d03339U, 0xf4cd2111c9d3db0eU, 0xe9f206f081c8d3caU, 0xf8d1fe03fffc18d3U,
  0xddc3ce29d1e4ba20U, 0xf6d6e506e01c04d8U, 0xdec4a9dd02dad64aU, 0xd10ae6d3a0d410e9U,
  0xe6539f351c9dcbdcU, 0x9701b21bd3e6ed2fU, 0x17d3d8e9e42cd32aU, 0xf4a2e1ae844e798U,
  0xfdf0f06d7e0d50bU, 0x19f312bcc83a07fbU, 0x260df6080eefc808U, 0x8116ea3ce5e6f613U,
  0x7e911fc09f4060cU, 0xf80ac1ff1febe80cU, 0x2f37ebc302981fdfU, 0xe2d1f5132009d11cU,
  0xde1909e3fc002207U, 0xebfbf6fbf7ec17daU, 0xffe51eeef60324e4U, 0xf5fbbc0ed417d108U,
  0xedcafa0905d1022eU, 0x307140907e2ee09U, 0x21425e503bccbd2U, 0x4083010b3ca1140U,
  0xa03b5d9f0590205U, 0xe2170df0de01f937U, 0x528d7f90ddc4a27U, 0x64abffad50c40faU,
  0x1df9e01ae8fdc8ddU, 0x3fd34445dd02db46U, 0xe3ff3ae701e715f3U, 0xbf91bc8041704ecU,
  0xe7f03eee71927f9U, 0xa50cf995331c0a0cU, 0x2a073f12d2353001U, 0xf639080a37e4ffd1U,
  0xee03c8f012ed2436U, 0x6d2f37f022ff0f26U, 0x16e6c64010ea15dfU, 0x291c1b02d9e5ff35U,
  0x1ed91f15590115dcU, 0x80a2a1611f11304U, 0xec0fd1df38c70f39U, 0x26facfecec00db16U,
  0xf1dc01325e39f828U, 0x160bc00afcf21e29U, 0xc3e20af51535f005U, 0x1210ded8203e50eaU,
  0xd8e8e5bbd6c13716U, 0xf0023adf0b813ef9U, 0x2a6222f21604e016U, 0xf70348bf1b1f48fbU,
  0x40f5194011fa8221U, 0x7dcf8f3fa2bd2c8U, 0x2eaa173c053814dfU, 0x21c5bfdef814f0b2U,
  0xfcdc570c3348cde7U, 0x86d8163c2001d2d5U, 0x2ad0e1e42502f820U, 0xe7a5c72f08f02720U,
  0xeb0910e2b28250a4U, 0xe9120fc9d8360bebU, 0xf173311516e9d91bU, 0xbfedf30f1326c22eU,
  0xb95b5ed191020619U, 0xd5ff82f6d6182601U, 0x12c026f8719b1708U, 0x18271d0e0e08b5edU,
  0x49e9d311b201eb04U, 0xe92f0e1ce9f9df0aU, 0xc3d3e0fef1f500b5U, 0x221630643f4170cU,
  0x13f4e66613da12b7U, 0x140018c05ffc1ecbU, 0xae413942d1f7c51aU, 0xfd2d2245041f23f0U,
  0x15d1acf4ec411de8U, 0xd3cf81f802edefd6U, 0x1cf3f70816d4f91aU, 0x3a0d21910b1123d5U,
  0x9ec1c1ff0eeff37U, 0xeb2ecd172be5312cU, 0x4f1f5ba00c54504U, 0xd825c1e95e2957d5U,
  0xea1bfcb500f10024U, 0x234e35fdbc3cbbabU, 0xf901f1dc28e31724U, 0x66c232e13ceaeb3U,
  0xdcecd3e41547f518U, 0xc2266c08e1d701b2U, 0xf3f71ee717cc432cU, 0xfc56e8221b5a1c2dU,
  0xc88b612f2c26a533U, 0xeb21fb8133025702U, 0x422bba3ed8321182U, 0xae12639d9e90accU,
  0xfda1cfdcf8eea726U, 0x2634c3f4fad43cf1U, 0xf405133bebd52a74U, 0x35301107110a200eU,
  0xc4014f185ee1e145U, 0xe00adadcf6ef6448U, 0x1c223100e5f754f8U, 0x7f02ff0cf42613e4U,
  0x25f844dbfce10f05U, 0x4af31bcc084131f1U, 0xa11f4de8ef3bea11U, 0xd50bf829ee762435U,
  0x12fdf108f61cfd0eU, 0x264afd6f708fce7U, 0xcdd32fd7c0fe03ddU, 0xe02f2d50ff02e8e9U,
  0x2909eddd0c1f0254U, 0xcee5e119e3e9180cU, 0xd303bcf15d5d931U, 0xf6314bef112d03d8U,
  0x5700e810d604cc30U, 0xc00d483b1bd1d70aU, 0xd907febc2ee529f5U, 0x5306b0f81fec1fe0U,
  0xf0f9dd290524df5dU, 0xe6ff3725d9ade80aU, 0x2deb27c47bb6e20aU, 0x5e90d263311f5aeU,
  0x160e181bf0e9e9deU, 0x10d10e031fedfef8U, 0x49eb1be913f4ee2dU, 0xd51c1932ea715bdbU,
  0xa06c92f2810ffeeU, 0xc9edfc5311f70deaU, 0x6ffc4fec3f5faecU, 0xd40ad701f5dd1811U,
  0x60134812110b6fcU, 0x45e0fd44351813f6U, 0xf2511eece1e293d1U, 0xdbfac92e2108a1d7U,
  0x46f126f1c413f6feU, 0x17e34be489c3df14U, 0x1de551ab42fbef3eU, 0xd2399b50b8b3bf8U,
  0xe143b31596212513U, 0x7ba25fb2fd9d760U, 0xdff410418a0f3cfeU, 0xcd0de9e711ba22ebU,
  0x36f8df1af50536e0U, 0xfa0ec219ebe7e00eU, 0xa4b7162ad5e71808U, 0x50d11d2213e081c6U,
  0x19f6c4f9e9cdf335U, 0x1e6c1be7f21417cdU, 0x9c3ef1ef40092805U, 0xe2f1e4d3dae4efc7U,
  0xeae6dfc595fe16e1U, 0xf1fc34f2e803bbcbU, 0xfd13f8f4040e08faU, 0x2afe2e35014d02d6U,
  0xf2ff1bb4f4f5baeaU, 0xae80f250425ce20U, 0x3eda211df7fce424U, 0x200ecdf4a30cce4dU,
  0xe1f20ff4a2797fe9U, 0x9c0bc3e98a13c5e0U, 0xcb7feccba8c54a1aU, 0x9af997cefaeae4e0U,
  0xe93bd4c235d0ad12U, 0xf03148ffffd6d3b0U, 0xc136f40697d2f823U, 0xdef03b24db260858U,
  0xd634e92e31050e22U, 0x8dc0515c90ddcebU, 0x1aa9db17d9ecfff1U, 0xf8373b303c051c33U,
  0x57eafd00f1e1fbd9U, 0x6745c514e7bd2241U, 0x13dcf806023eefdaU, 0x13e3e23b09f2e2ceU,
  0x7fd3cdcf8030b29U, 0x5fbd041725231327U, 0xd7eec8d438e6e1f7U, 0x2223daf8ede7f0f0U,
  0xbfd2d70617ebcae8U, 0xeef155d8c4097fe5U, 0x1ac1d4d004cbf713U, 0xdd1122efed1700f1U,
  0x64c2510def503dcU, 0xfad9f019b202ee19U, 0x2a189bcb15efc0ceU, 0xe80ae0fb5b31f9U,
  0xffff9f8d00001934U, 0x4630ffffbff0U, 0xffff805a0000399bU, 0xffffc5c700001905U,
  0x15d900001204U, 0x49b7fffffd9fU, 0x50daffffe83aU, 0x1b2500004a16U,
  0xffffcf0cffffd3ffU, 0xffff8925ffffd802U, 0x237affffbf76U, 0xffffe35c00007ab0U,
  0x56b418f5eb8518b7U, 0xdf30b17fec431005U, 0xbc1048f78500f6ecU, 0xc407ffbcde53dbd4U,
  0x9b03f674bae50e81U, 0xf6db0c0722c7d1cbU, 0xf711dcbc2fd0be41U, 0xda3781391c2012c9U,
  0x41d4c714f3d004d5U, 0xe61b02c31dec0d97U, 0xada723fd46f41523U, 0x7fdf11d1f9f43cd2U,
  0x327ff2d1e6cfb503U, 0xd1ef4affe9eaefe2U, 0x102cedeec2e003cbU, 0x1bbdf995150aed05U,
  0xe1f21da0e4fcd61eU, 0x9dee6810fd24fc7U, 0xdbf6ce64e3d2268bU, 0xb1f19e6481f10b88U,
  0x17f055bc72983daaU, 0x56c6e7f0ff11f900U, 0xf0e131811fd6d91dU, 0x79f7d58a3dd6f4b3U,
  0xda0d8120930f3202U, 0x42f8db1d6f70202bU, 0xfaffe802e9191d18U, 0x3020e87160240a00U,
  0x52ed2136edecc9f4U, 0x67fe177f48192133U, 0x1e6d02452cfd98d8U, 0x122a4e361d84eab6U,
  0x2e172d2925e1007fU, 0x21131f7f28165c1eU, 0xb2e3260df432e70dU, 0xf675dec11efa241dU,
  0x5f62fea46fcf250U, 0xee92fa10d2f80281U, 0xa21378bfeddd1f11U, 0xdf02113181a59bebU,
  0xde2d60ae219043dU, 0x140117d7fc17a4d2U, 0x1825d5e6fd0704e4U, 0x1837f0f1ab81150bU,
  0xfeea1c0b08dfb0bbU, 0x12f8331fda02157fU, 0xc6b510ddc7e8b73aU, 0x5a4b0c1e0836e514U,
  0x131e0e0fc21cfef9U, 0xd9ab7fd4c520e223U, 0xe04542e02d163d3fU, 0x17e121d67348f109U,
  0x205c840e550ca681U, 0xfff7fbd6fef1bcecU, 0xd2b371cfce633fcU, 0xf11dd4d1ff81f1e1U,
  0x4c4c03f61cf90aecU, 0x404077fc9a0440cU, 0xe415e58efe2de50cU, 0x2c5bafd933d8f6bbU,
  0xd609e529e4e6d502U, 0x99cece6810e5f56U, 0x1c310d2d1c9aa90cU, 0x13feeff50edd9e7fU,
  0x141c07c3142b2f40U, 0x3b0b213139d19af2U, 0xd13a9eb0b0ed058U, 0xe10f7fca0dd81de5U,
  0x2fe22d1814e115dcU, 0xe502811eeec56443U, 0x350c2b6649ac3e02U, 0xc00a6582dd3f5224U,
  0xf21928f52dc947dcU, 0xd4b213dd91266d4dU, 0x5a28eadc8f7f8c0bU, 0xfb1fd7e84d1fddf4U,
  0xc7edf30d7f2b5c35U, 0x1ffb1bd8afdf0bc6U, 0xe3ea310805fc0905U, 0x7fe81d188ef629ceU,
  0x45ebcbd2f3cc1b39U, 0xe0213b2ced02fca3U, 0xb1d3440b81f1dbd2U, 0xe33c5f730411122U,
  0xf847e704301c34d8U, 0xd8cb7a168108dff5U, 0xdb1c06fa0bfadb2dU, 0xf2f08bf11435c213U,
  0xe0cb1acfe67f1f06U, 0xede60d20560d0825U, 0xefbf51f0abc0534U, 0xa9e107f381eef90fU,
  0xf4ca14dbeed40e3fU, 0x3fa554af3f07181U, 0x14fccddefa6ce51fU, 0xc24ed6ebfcf6154dU,
  0x14dd4bec38efc07fU, 0xedf1a5e1cbe4e94fU, 0x43192b15f5f428d1U, 0x1fe3c7e173fb1a0cU,
  0xf909051f07c1fa4dU, 0xe619fcd6d7df7f1bU, 0x81e6cf022b0ded1eU, 0xf7e83bddde1df8d1U,
  0xfa1d170607c2d837U, 0xe856e51b1f201a54U, 0xc6c809f22ff4a37cU, 0xc081779ff9c71fafU,
  0x15cf01ec7c191d16U, 0x5bf3509bd342cd0U, 0xd4395d0b819cefefU, 0xeeeb540b7f162ee0U,
  0xf4d7031c1ca8dff8U, 0x9f23c9ff15f2f7c7U, 0x1e4ec051c7fea10U, 0x3edff875d70a1cfaU,
  0xcdf1feccbd0a3a55U, 0x28fee41dee081e39U, 0x2d600c307dc173aU, 0xc3f10e0e7f0c36fbU,
  0x80841f5fec40b7fU, 0xcecad1d6e8d1163fU, 0x23fa1f22341bc1d4U, 0xe8815eafdd05fcc7U,
  0x7cffa1ff74d21beU, 0xe64a49ef5eebde7U, 0x47f0ee4020f1b09U, 0xfcbfccc8def7c7d0U,
  0xc7f818f6eef007e2U, 0x1ffac4eaf3394ed4U, 0xd4124984f918f9e5U, 0x2f58a81d7cdaee4U,
  0xa8f620f73debefc4U, 0x91d7171d9c127f26U, 0xef5ef7e40f2fecf0U, 0xfe5c9dc7f2b0423U,
  0xed44023d180525a9U, 0xff914fb4cee2b09U, 0x403719f4122ef0e1U, 0xfb0a330810153cacU,
  0xf3fbe9e781a2dd0fU, 0x2df20fa62f370512U, 0x7f083a507029feb1U, 0x1456188ed72b3229U,
  0x45caf9cc303ff501U, 0xf281060e01a707feU, 0xa1cddbfdfe390d62U, 0x1717fb451df3ecf5U,
  0x13c60be9b703260dU, 0x47f1217f1ce4b345U, 0xa0cdf18f428e0cbU, 0xe3047fe7d862f494U,
  0xe2cc55ea2349e6d3U, 0x33c06a20ca035932U, 0x7a7ff82b390e025dU, 0x4f8c03292a0e3d15U,
  0xf60591abea1f9958U, 0x1ccf1d81e8040d36U, 0xfcdaf0450f0ee51fU, 0x7fff241ef50410fdU,
  0x13fe11e429fd03dbU, 0xf004f93212fa35U, 0xe0fd02dc40429019U, 0xdf0e487f44052024U,
  0x16e52f650c2d52a6U, 0xf14531adfe02f288U, 0x3ce19f98ed7f9c68U, 0xc835c72d27ffff03U,
  0xf02150fff4f32de7U, 0x14018137ffbaf1fcU, 0xd8121fc9afe32dd6U, 0x7411180d01d7cbU,
  0xe70cc47443e5f5e1U, 0xc70d2f7fc51018d9U, 0x97fe5c7f3ede7e7U, 0x3ef5fdfde2f40cadU,
  0x20f1c1fdbdd6f1f8U, 0xebf42e59bef98109U, 0xf10ee3edeed828b8U, 0x153024dcddb601f3U,
  0x9b02cef736d54a81U, 0x696ad83fe916009cU, 0xf05f67f7e582ef7cU, 0xeae6deb8fcdf02f7U,
  0xd716d5900be9efffU, 0x37d9bf81e5e0d412U, 0x8204ef8312de102U, 0xf8ff270e082508d5U,
  0xca1dd8047fc6e1deU, 0x81172931c8c79808U, 0x24c2f8fd07e4cf28U, 0xffa868cd9d0ee1c6U,
  0xddb8cbe783f3f1eaU, 0x7f18c25c0a235e20U, 0x82bfc40ffd2ed08U, 0x31fdb16e8d70b02U,
  0xecb4cca7eb1f3330U, 0x7f04f9f80d1a4e61U, 0xda014307de4b05f9U, 0xd1fe07f280cd5c0U,
  0xe9fa25fbf01132f8U, 0x66fd24e39592e10U, 0xfb5ee3692610072cU, 0xf09a19a14cc00781U,
  0xfa08c6d6d80509f3U, 0xdde90e191181d3cdU, 0xe404e6ee3045ec4dU, 0x64014269ec57395U,
  0xefde0bc103e066e5U, 0xcbfc12eb81e75be6U, 0x1dc7b7d5f4ef3715U, 0x20241cc3fb138109U,
  0x91fd0b30bd8fa97U, 0x1f11f234d315ed81U, 0x10452f7fb421b1fU, 0x21a8d4020c33ab42U,
  0xfe05152327d448e8U, 0xa24f6c87580c13e1U, 0xef7fa93dbde22a20U, 0x2ace99edbf737faU,
  0xafe4eda2f90bf91fU, 0xe0d4db810bf60801U, 0xc80dc0f12efc2cffU, 0xd77ff8303811aaebU,
  0xc6100ae72d193322U, 0xa023123c4812729U, 0xbbe60d082723e6eeU, 0x1b1d31c1152be3edU,
  0x5d221a1cd1ce371aU, 0x4a816299f735a23bU, 0xfc275b3a473a25beU, 0xfb74182230e8c21cU,
  0xdee2e73618d1f20cU, 0xd908577ffd190508U, 0x11e2d87ffcd757f6U, 0xd0b20ae221eeb227U,
  0x1a4534314417b1ffU, 0xead758ba0917f1ffU, 0xfffef6ff2e81e120U, 0x4eee626fd35c2efU,
  0xeb0af743dd3c2c04U, 0xfa07ec1308197f17U, 0x39f1bee40e42fb26U, 0x40e22c5c516ded9U,
  0x1f471cebfc7ff605U, 0x5d02f1af027a919U, 0x144bfd37721cda20U, 0xe811a2494e927e5U,
  0xeb1311191a0fe947U, 0xfc3fca483135f9beU, 0x9a2f51a35b0cc3fU, 0xf8167f2510491637U,
  0x171ecb7f23a22fecU, 0x90b2d5d7c1090ed8U, 0xdfefd1271cfa50f1U, 0xee12e07ff3ae1efbU,
  0x150eb3b85b930bfcU, 0x27c08f2522a8dbebU, 0xdcaf122a409331eU, 0x1e23e6f07f303828U,
  0xdbea2aedfaf0e218U, 0x6de04ef1fafad12aU, 0x3812eecbf7fc9911U, 0xd13928170ab0bb6U,
  0x3c0633ce16c19a33U, 0xe6db26e4c0386be1U, 0x81d74200f9db9f26U, 0x20dabb3581e212c3U,
  0xfd4078616a25e50bU, 0xe928d0e4045e9f5bU, 0xd0d8fb1d033938feU, 0x2d5bcc6cebb10edcU,
  0x6f8a681eab9c1ffU, 0x2d20b8b2b7ddd926U, 0xbc342381611adb19U, 0xfb00081fe430c5d2U,
  0x13ee9dc47f23a946U, 0xfd961baa20a9ed3bU, 0xe7f1efefea47441bU, 0xd97ff5ff0f29c5d2U,
  0xeddc0df92af1f01fU, 0x2542c5cbcdfe0feU, 0xeacffa38ecf9e514U, 0xec1dd26071bc7f9U,
  0x910e206177fec9cU, 0xb0e1dcce500a3917U, 0x17e01c4fe90a2d22U, 0xd4c0f4f581090ff4U,
  0x1bd60f2ff6d7360eU, 0xefd70c44fffb36efU, 0x6f5caef0f7f0cf8U, 0xf80438b0f0e9cc24U,
  0x7d752e3ddbffe1e6U, 0x580c187dd818b07fU, 0x172e0af900fc41d5U, 0xc9df4338ee1eba17U,
  0x2b4b816ebf47f07U, 0xdec2f1d1e67dca7fU, 0xcff8a20a2a081e24U, 0x48ce5023e4bda4acU,
  0xde2910618d23e352U, 0x5199216ea16b5d5U, 0xb8c3c0cf30f88122U, 0x1707ef3ee8f00781U,
  0x2823f12a0b411120U, 0xe3b88e1ebf7f618U, 0xe529a181ccc70b16U, 0x5920bddbfeae8859U,
  0xe0f06bf7ee0bf626U, 0x2c283e561a95e11bU, 0xa09bf2a3c581c9deU, 0x2163ae0adfda00eeU,
  0xacfc07eb01049ac7U, 0xaa0b1dbdc424ec33U, 0xde7fe45fb8e6ae05U, 0x33fb089bb3ec57aaU,
  0xbaefe6b4dbde7fdaU, 0x2c21cc6efdd249fU, 0xdbce4f811cf8cbfeU, 0x3cfe21190cb3c51eU,
  0xa7e6fa1b1861e834U, 0xfa03f816d71557f6U, 0x2e14b0b6dde6c881U, 0x36e2d430ddf9da16U,
  0x1f3c7eed22fe942U, 0x36508eee3dee62cU, 0x34815e1e0246e2f3U, 0x8fa08d8faecc87fU,
  0xda00e6fbf3ea0716U, 0x3f06ed20fd182ee5U, 0xc0f42a81ff4f3df9U, 0xee35d728343b4ef5U,
  0xb4ec1899e9051ab0U, 0xd6d9f98fdcd44377U, 0xea04e1db7fc8de43U, 0xc17f6b4f8fd28adU,
  0x1001c924f8e805d9U, 0xa4b005f28127de04U, 0xf538fc1111c8eb08U, 0xe4457fed0c07264fU,
  0xec17ef31b0d85606U, 0xe8b31cf0ce05fb18U, 0x81e2bcf91a330c30U, 0x68b05e57092417c8U,
  0x60a51dfc701c6b2U, 0x30817216dc4fb408U, 0x6bb01437b2ef6be5U, 0x52c6020e41e5c348U,
  0x17a57aa43a46eadfU, 0x34afe45f02d3c111U, 0x81c8a7439e4e00a3U, 0x4c5bc36e069be1efU,
  0xd801cc19dbea0521U, 0x3cc1a7f204c3a4aU, 0xf047e24f0ff71902U, 0xec0f2ff2f87f1acaU,
  0xc1436d61a913cf6U, 0xf928177d10f3fcf7U, 0x3a0c3e3adc0514daU, 0x11f6f97f0e07cf0dU,
  0x1bf7f2a3f7ef022cU, 0x1923eeede87fd4f5U, 0x1f455c012d43634cU, 0x19b4c40cdfb61457U,
  0x3f58d7da271110c3U, 0x24dc5c0d22667f0dU, 0x1b54ce89378109f6U, 0xe52fb3142f10ca1U,
  0xf60eaeb91d61616U, 0x38dcd7e200e9eee9U, 0x138dfae2a823d4f6U, 0x6b059d811fedcff6U,
  0xb19002c81d9faffU, 0x3fbb0fb1d2fd1649U, 0xd41814ff272b25c6U, 0x1f11187ff0fbfbb7U,
  0x27c91844afcbf61aU, 0x23e7416a0a19fc25U, 0xeb710c18d63511e5U, 0xacd7f6661ae25ee9U,
  0xfafc537f040b31eaU, 0xefd0eb10fd0c4632U, 0x383200161d2681fdU, 0x311f2e2fb517010dU,
  0xfa12e240f3081335U, 0x3a7f9e096ee8014eU, 0x50cfe7ec00e4042eU, 0x27d91b45a336f705U,
  0x7fe07483e2f4caecU, 0xdc092d1bf2056104U, 0xa06d1f433226505U, 0x7f0b2936a1fad9afU,
  0x681cd2fb162fbae0U, 0x26c3634a07bd09f3U, 0xf1c0e13c067fef8dU, 0x8c6bd3da0df01517U,
  0xc411ed84098e0df2U, 0x137fd53c6e87c914U, 0xc34dc0db385fc18U, 0xf15d944e612faeaU,
  0x17fd043815fe81efU, 0xf73e1c58105eefdcU, 0xf70a2129e0cb2309U, 0xd06c9e3fc811ff2U,
  0xd0404f304deda17U, 0xeb104281e112e23cU, 0x3528bcda0aece3ebU, 0xd426003af2208cf3U,
  0x1326b8788db1bc0dU, 0xfb261e1838980c04U, 0x23e9179b02c77f3dU, 0x2120f8ed01fe10edU,
  0xfa144e46e36cd4e1U, 0x177f7aab28170bf5U, 0x7340de3c53bf71fU, 0xf91cfef24e01e381U,
  0x126dd3042a30c954U, 0xd3380c0dbcd90f04U, 0xa9fb7f17a9f9488dU, 0x25ee50c4d2fe5516U,
  0x2514d381f8ed9114U, 0xfdfa3b93d553ba25U, 0xf6efef2c3e3a041eU, 0xfbc4162821020813U,
  0x2ee224c1fdff202cU, 0x7be6b0be7ffa1c3aU, 0x313e08f2d7ed1bb9U, 0xfc7f26e67604f2afU,
  0xd8d302040018ff3aU, 0xcde3de91b70f0ac6U, 0xf1d5eba47f20f9dfU, 0x191ddbabfeebf5b3U,
  0x19440000c7aeU, 0xf67ffffecd1U, 0x2587fffff980U, 0x161c0000092cU,
  0x362f00001db0U, 0x2acc00001490U, 0x42d9ffffe61bU, 0x29280000146cU,
  0xffffec7f00003b3cU, 0x247200001c61U, 0x16cc000035a7U, 0xffffebf800001134U,
  0x1c9700001cadU, 0x1c43000014d0U, 0x2eb300000e70U, 0x1ae400000edfU,
  0xe0b000014b2U, 0xaa5ffffff2dU, 0xfffff3d5ffffeda1U, 0x2ac300001be7U,
  0x173900001f57U, 0x3396000008f0U, 0x727d00000ff7U, 0x291000000e03U,
  0x27a100001370U, 0x2dbffffec2cU, 0x43b000000e01U, 0xf3b0000000dU,
  0x14c800001e94U, 0x1247000015e5U, 0x277900000b18U, 0x23a20000078aU,
  0x1044fffff155U, 0xffffdad200000bbdU, 0xfffffd39fffff97bU, 0x55fffffed53U,
  0x124200001455U, 0xf5000029e4U, 0xfef000037acU, 0x170d0000239eU,
  0xfffff61500001060U, 0x22d4000029fbU, 0x1909000024c6U, 0x1f88000016d3U,
  0x331affffea9bU, 0x9b0000013c1U, 0x1880000455dU, 0x38200001a06U,
  0x5608000013c4U, 0x19adfffff8b2U, 0x161b00001c21U, 0x4cacffffd583U,
  0xfffff28c000001e3U, 0x3ac00001c52U, 0x1a600000104eU, 0x291d00002af1U,
  0x19a400000e7eU, 0x2fbd00001309U, 0x27e8ffffecc6U, 0x357e00001504U,
  0xffffeaedffffef04U, 0x2aad000014d3U, 0x2e2600002591U, 0xffffe3b6ffffeec1U,
  0xfffff76300002029U, 0x156100002648U, 0xfffffe080000361aU, 0x38dc00000dacU,
  0xffffee97fffffbd7U, 0x2d6fffff3a8U, 0x249200001a03U, 0x12ba00001fddU,
  0xf7fbe92b813107f5U, 0xfcd9810e2ab9f6e9U, 0xf0ce7fe02f9fce8U, 0x1711d90503f4eefaU,
  0xfd2d0fe1120416f7U, 0x26dbe391fbf6291fU, 0xefe3ff21fdf126d7U, 0xcbf5050bf0ffd7e4U,
  0x9bc4e61e1912f225U, 0x207fefe1a9ce0117U, 0x81ed1df61c1af5feU, 0xe8df7fedc6110dfdU,
  0x1f005f6e03003efU, 0x5f50b030310f80cU, 0x61309fc1207f73aU, 0xece50b11b6ff0b32U,
  0x22faf23f9011f12U, 0xf82718f30c091b18U, 0x1ec0543ba17f7f1aU, 0xe7eaa829b9c01eadU,
  0x33ebcedbb6f317d6U, 0x7ff0b0debc0becb2U, 0xcffe16ce7fe516fdU, 0xce8181b9db1a0e7fU,
  0xc68105041cffe327U, 0xaf409803eb03dbd9U, 0xd9d6817f7f7ff124U, 0xfa847fded7e82506U,
  0x34057fdc6cdf0effU, 0xdde017f08120e781U, 0x41ff7dc863efdceU, 0x7fbb0bcf1a7f8130U,
  0xecfcf9db7fc5dffdU, 0x7fda7fe9ea7f3e27U, 0xf3ccc0a020b537f5U, 0x247f60dd75183815U,
  0x8fcef20c9350bebU, 0x239f0fe41f79ddU, 0x824e30b16f600ebU, 0x22e1ccebf3eff9f3U,
  0xfc0cd011181604U, 0xede5ec88f8fa0026U, 0xe40fffd3eeef0575U, 0xb2e701fdf0fa16dcU,
  0xa239f12a12180d3bU, 0xdcd71df2e5c6f9d6U, 0x9072805e8e8f902U, 0xedd4f7ddc00904c6U,
  0xf81ffd02b01a0323U, 0x1234fc06052e8edfU, 0xfce8f1fa18faf49eU, 0x330c1efe12071a21U,
  0x6c8c01519082bf0U, 0x751704230e172627U, 0x7fbf3a128337fadbU, 0xf481cd32743f1381U,
  0x35bbcbcdefe11eceU, 0xea7fee98d4d8ad14U, 0xda7f0ffff87816cfU, 0xad0b9ed4fd227feaU,
  0xd2e5d17f2e15610fU, 0x87a2445de02704e6U, 0xb5c9352b4357b90aU, 0x756c3de4fbfcec7fU,
  0x4fb1f1ca342649edU, 0x8de02c9619b57fa1U, 0xe52bf6d57f4209d6U, 0xba497ddd22e8481aU,
  0xc7170bdb8c00601U, 0x9981d67f0e083a12U, 0xf37f7f8181ce5d7fU, 0x9debf8d6ad151f21U,
  0xc07f3f36b1fc957fU, 0x98e5db8181fa8166U, 0x81c17fac81988181U, 0xdfe7377fb17f7f7fU,
  0x7f95817fe68181b0U, 0x817e1c62a07f0ab0U, 0xc2e97ff07f7f817fU, 0x42f088817f787f7fU,
  0x33ff5a687b9fb07fU, 0x5df0197ef7fb28cU, 0x14ca89946d7f7f7fU, 0x7f7f0c3b49d4a6cbU,
  0x817f9a7f137fad87U, 0xf5a581b381d23f3eU, 0x8112817fce7f7f7fU, 0x4e33a09a7f037f7fU,
  0x81cfb9f724c344fbU, 0x178c81b46b817f81U, 0xc6c9312cb942f3d4U, 0xda76e12b0781eea1U,
  0x387fac7f487f13cfU, 0xed8bdb94f0d4ad1eU, 0xc901150cdf6e1c7fU, 0x4019a5bc7f1bc9e7U,
  0xf64fc2ae20164501U, 0x818ac153ed4efbf7U, 0xa57f364456a57ffeU, 0x81d2aee3ccfa5302U,
  0xe17fd87f3e0121e6U, 0x9ee2da810c7fd991U, 0xe61d7fc85e2b7f7fU, 0x3689ebe226e5b781U,
  0xd9810cc6d1a6360eU, 0x3077d3f0f7f8370cU, 0xde9bb98b3ae47f89U, 0x39e8ec7f24190528U,
  0x3f71aaaaaf9f3e8U, 0x12fca00f410503d2U, 0xf9dedf05edff17f1U, 0xef0ecc1616d817cdU,
  0x11001aece2022ff3U, 0xfefad2810812bbfaU, 0x32f1020cff0dec2cU, 0xc9f725fbd5be17e8U,
  0x81bfef18a9effd43U, 0xc3d80b88dd0d31U, 0xf8d7e707f9de03eeU, 0xceebe2e50bf71a77U,
  0xf810eaf4ec1f01f0U, 0x2192b1607eb7ce7U, 0x4e1b18f70fdcb79bU, 0xfde5122920f02130U,
  0xf5387322d91e1123U, 0x94e1f5d0b60c0a2cU, 0xafd87f81cc3dcb39U, 0x7ff5b421dc5a12a5U,
  0x4dcceeb35fb2ab6U, 0xb1fb81bf7f0e33b6U, 0x880616c0fce70ce1U, 0x7bfb8ef8d940d7b7U,
  0x7f5a0fd3191aaee6U, 0x897f7fecc981e6cfU, 0xd228a94032ccf95bU, 0xf33da47fe1dc81d4U,
  0xf4f3b8f67fdc23a0U, 0xffdbc0e812f2f629U, 0xef22efd2074be3f0U, 0xc97fc87f16ab6a8fU,
  0x4408ece0d0d4ccf3U, 0xef16d5dddaa62e3fU, 0xfefe37a9fd7f7201U, 0x81e209f3811b061dU,
  0xfef0feb6b41204e5U, 0x100eb709f217f4c9U, 0xfb16d636140d0df4U, 0xe5fbe6071ddb09edU,
  0x2e213f9f00a3022U, 0x41f5e0991411c2f9U, 0x2b3ef9d6021013f1U, 0xe7292e05deb7d3d2U,
  0x9e13db28d11d0139U, 0xdbf8ca0681cb41ecU, 0x102beb186aff2ce5U, 0xc1e4a3bc0bfcf755U,
  0xf5fc1ee8f5202829U, 0xe60fee1b0fe9adb9U, 0xfee4fbec0ae2f22eU, 0x740fef4ccf0192fU,
  0xf2edbd21122b55dbU, 0x6d40415a40c0422U, 0xffffffb1ffffcf65U, 0x4beffffff51aU,
  0xffff8eb600003907U, 0x4b000004feU, 0xfffff79200004d20U, 0xfffffd06fffffc19U,
  0x86dcfffffe8aU, 0xfffffe4d000001b5U, 0x34000004e00U, 0xfffffe45fffffa24U,
  0x1cc7ffffe4aeU, 0x114afffffba5U, 0xffffef1c00000424U, 0xffffff8ffffffd25U,
  0x638200000781U, 0xfffffd64fffffdf9U, 0x1764fffffeb6U, 0xfffff72b000017baU,
  0xffffff1b00001c6eU, 0x10b6ffffea5cU, 0xffffeb28000000aaU, 0x9ccffff977fU,
  0xe2bd000035b3U, 0xfffff34d00001712U, 0xfffff037ffffa4a3U, 0xffffc188fffffa5fU,
  0xfffff6ecffffff6aU, 0xffffeb17fffff938U, 0xffffedd4000026feU, 0x28b2ffffeeccU,
  0xfffff120ffffff63U, 0x66be00003cedU, 0xfffffe95ffffd313U, 0xfffffc02fffffb1fU,
  0x944cffffd266U, 0x34bb00001411U, 0xfffff91cffffe845U, 0x48d800008a7bU,
  0xfffffe51fffff552U, 0x47dfffff3f1U, 0xffffde65000004f4U, 0xffff4e0effffdbbaU,
  0xfffffe80000003ceU, 0xfffff651fffffaddU, 0xfffffa8600007df2U, 0xbdfffffe299U,
  0xffffef5500005015U, 0xe0a40000116cU, 0xffffe2f90000003bU, 0xffffe801ffffdbb8U,
  0xfffff6d000001480U, 0x228cfffff297U, 0xfffff9c200000212U, 0xfffffee8fffffd0aU,
  0x305fffff59eU, 0xffffdcddfffff8f1U, 0xffffcdfcffffe4c8U, 0xfffff90800002e7fU,
  0x58200001797U, 0xfffff96bfffff81aU, 0xfffff233ffffe571U, 0xffffe500000000d1U,
  0xfffff646ffffe851U, 0x1209000031beU, 0xffffeaa3fffff96bU, 0xfffff551fffffee2U,
  0x46400004350U, 0x2567fffffafbU, 0xffffed1dfffff27cU, 0xfffff8ecfffffc8aU,
  0x188fffff99dU, 0xfffff68dfffff9f3U, 0xcd1a7f683fc8eaeaU, 0x35dc22dc10e59febU,
  0x1be4dcfbfe2a10d6U, 0x1ae4f230fa44f73aU, 0xcdf70516b91b2652U, 0x1315f05af51ada24U,
  0xe0f2f21f152024aeU, 0x233a92380425d7f1U, 0xc01ef730d81bac9fU, 0xfbdd88ccdedef216U,
  0x13ab190075e7d30bU, 0x3c0f1008d6d51155U, 0xc633f3c46746223dU, 0xbde16e051effba09U,
  0xa80a11efb4f1a416U, 0x25ce3ae0f1162aceU, 0x23efe8be00f7ffeaU, 0xecf5474e3806de28U,
  0xb84cee1200ea1212U, 0xa93616faeeb2ddd3U, 0x13d8ecf2dc0851dbU, 0xeabfcbe4dae40822U,
  0x3f1942f504d72afdU, 0x2be01e310a81021bU, 0xd0ff05181918e5ddU, 0x5e23dde15e0838efU,
  0x21af1ff801dcb0ffU, 0x41a5c6bb16ddc021U, 0x2e1c1c0304d13a4eU, 0xdd20e3c9e4f3fcd0U,
  0x1ffef9301e1a16fbU, 0xf0d4f91a34fede17U, 0xd204cc11bf0be7fbU, 0x40e50ad5ce12de1bU,
  0xd61fbde1f0efe702U, 0xcdd0f34b0e32eb14U, 0xfa31ca284cec336fU, 0x3b0e3501f73bc0dbU,
  0x33240322292b1b14U, 0x15f9fae273c160e8U, 0xed21ca4734debc4U, 0x1183f0f20d1e5100U,
  0x3ef23372dacff54U, 0xd1e23f2ac9f2f3bcU, 0x3746b2dc350d16f7U, 0xf256924141aee33U,
  0xa114f419d91402a1U, 0xe6150ae4e4f6aac9U, 0x321cbb1dfd58ceU, 0xa24a95f56012f16U,
  0x4b22e9e33e810812U, 0xec13743cf82d0c33U, 0x6f449f036553b14U, 0x22e7bbe3e14fd103U,
  0xf7c10eebec1f4b3bU, 0x14e14b08c5f630f4U, 0xc6fcf008d63c231bU, 0xc58b0d7f418b31dU,
  0x13f7e41f622f31ceU, 0xf0d62bdccf3636bcU, 0xbe3f9f0b9fbd63cU, 0x27fc1de14e23ed1bU,
  0x2bf9070945e71b16U, 0xee04f0722ef5ff09U, 0x41bc7de090d0d0bU, 0x254c0057f3ce92dU,
  0xe40e55de41e08c0U, 0xd059c1ed0e04efd6U, 0xfaf3ff5554051424U, 0xd4f810001ee9fa18U,
  0x2e3e2d37c733d436U, 0xcef0052321dd53abU, 0xdee31bc5ad4b27dfU, 0x1e24b60c140d6873U,
  0xd7fee00c000aef5dU, 0xfa16e821e8021006U, 0xadd03fc0522e601U, 0xb2e72af8f7d9c4faU,
  0x819e6181e4c14f6U, 0xefd8ff00ad1dcfdfU, 0xc7e20d131ef11f03U, 0x959cceffbf8f2c1U,
  0xc8dc44da210d5442U, 0xebc7e1e12ddbf4dfU, 0xdef9f0061aa9f7dfU, 0x1f5af4b9252f0896U,
  0x3ef4fff316e2e8f3U, 0x2800d3edb53c7f1dU, 0xfd20f42811b317ebU, 0x33190a03e1f54e51U,
  0x38b2f93ccbb736faU, 0xa1fd3e9284513e2U, 0x105cc7e7dde4c5a9U, 0xc90002acf6c4bbd4U,
  0xd006dce3e41c4f0aU, 0x5ef1908120f4ed19U, 0xd8e4f908e1fb38ebU, 0xc02bc109e9e6e787U,
  0xecb8e4541f230fddU, 0xe12c0ca8f2a84028U, 0x10242d05deaa379dU, 0xecf237c1dded9ddeU,
  0xc1f3f0ff00f417fcU, 0xe1164d2e18d3c92aU, 0xdc02411be6c0c404U, 0xf2b7f1fcf00de039U,
  0x1006fde03329dd21U, 0x4af6edd9fc0f3914U, 0xc31018e50112cff5U, 0xdc0ed51c43fa311bU,
  0x1231170cdf0ffe12U, 0x9bed0a0cc8fe3cd5U, 0x141605bd34ebeb11U, 0xe5120a22ff00f306U,
  0xe0e9fa29e8fb45efU, 0xd9cbe6ec3604eefdU, 0x71e1cedf3f9f315U, 0xf610ebd3ee0dfffaU,
  0xef2709d500e510eaU, 0xcce516d9e8262de4U, 0x18f606f209d849f7U, 0x31c20f1f800ece9U,
  0x4ffe0ce1f7c5eb08U, 0xf4067f0e98ecd5ffU, 0xfaef1816344a1bd0U, 0x3207f23a0a324512U,
  0x21100107cf050bbcU, 0xd9470f0b1a05f5ebU, 0xfc4be02b272707e7U, 0x753f6e30a20e1faU,
  0x281806f4f1f7234dU, 0x4e0ea0e2414fd12U, 0xea168168cfee0a00U, 0xf9fe0818edd3ebebU,
  0xdae9d2e6de0f4a0bU, 0x611702d0e7fd2407U, 0xfd44fc5401e3daeaU, 0xf703eac70b1f3cdbU,
  0x17fb5d02de041b59U, 0xeefe35fdeff3ffe1U, 0xe0563af4dbfcd410U, 0x8e1e9fcf3e8ecdaU,
  0xb401ee8250dfa57U, 0xee10f16518eefc07U, 0xf22cd5f2f22725eaU, 0x1cbb61133beb01fdU,
  0xb9e76df0271e1dbdU, 0x2eaf0e6e544d00fU, 0x1711f4eaf72543eaU, 0xf5e9d7a9fabffdd3U,
  0xee10031326a41df3U, 0x27012230330c40d8U, 0x482205d4ea5fe419U, 0x24fe2ff704f0fc21U,
  0xe0efd91be1a5e5e2U, 0xcc1910341f5f0424U, 0xa8efe93624e04ae3U, 0xe82cfdbdfe1acc4dU,
  0x461001f12de412beU, 0xf3c819e2af2afb09U, 0x2c26d981ded1def7U, 0x5e29f5fa1f0c01abU,
  0xd6e8de5f3ae51b1bU, 0xcd06e8f7e3faa818U, 0xdefbfdf62c171818U, 0xfbe2d8ee1db8fa2fU,
  0xee1ec1307d5d51cU, 0xf0b0b155eeb1816U, 0x15df3922e8dfcde4U, 0xc41ef1f51b2c0612U,
  0xd2070ae431ef25c5U, 0xf700583afc261c24U, 0xf71800ede5f64118U, 0x35ec563fc8f1fc2fU,
